{
  "version": "1.0",
  "truncation": null,
  "padding": null,
  "added_tokens": [
    {
      "id": 0,
      "content": "[SEP]",
      "single_word": false,
      "lstrip": false,
      "rstrip": false,
      "normalized": false,
      "special": true
    },
    {
      "id": 1,
      "content": "[END]",
      "single_word": false,
      "lstrip": false,
      "rstrip": false,
      "normalized": false,
      "special": true
    },
    {
      "id": 2,
      "content": "[PAD]",
      "single_word": false,
      "lstrip": false,
      "rstrip": false,
      "normalized": false,
      "special": true
    },
    {
      "id": 3,
      "content": "[UNK]",
      "single_word": false,
      "lstrip": false,
      "rstrip": false,
      "normalized": false,
      "special": true
    }
  ],
  "normalizer": {
    "type": "BertNormalizer",
    "clean_text": true,
    "handle_chinese_chars": true,
    "strip_accents": true,
    "lowercase": true
  },
  "pre_tokenizer": {
    "type": "ByteLevel",
    "add_prefix_space": false,
    "trim_offsets": true,
    "use_regex": true
  },
  "post_processor": null,
  "decoder": {
    "type": "ByteLevel",
    "add_prefix_space": true,
    "trim_offsets": true,
    "use_regex": true
  },
  "model": {
    "type": "BPE",
    "dropout": null,
    "unk_token": "[UNK]",
    "continuing_subword_prefix": null,
    "end_of_word_suffix": null,
    "fuse_unk": false,
    "byte_fallback": false,
    "ignore_merges": false,
    "vocab": {
      "[SEP]": 0,
      "[END]": 1,
      "[PAD]": 2,
      "[UNK]": 3,
      "!": 4,
      "\"": 5,
      "#": 6,
      "$": 7,
      "%": 8,
      "&": 9,
      "'": 10,
      "(": 11,
      ")": 12,
      "*": 13,
      "+": 14,
      ",": 15,
      "-": 16,
      ".": 17,
      "/": 18,
      "0": 19,
      "1": 20,
      "2": 21,
      "3": 22,
      "4": 23,
      "5": 24,
      "6": 25,
      "7": 26,
      "8": 27,
      "9": 28,
      ":": 29,
      ";": 30,
      "<": 31,
      "=": 32,
      ">": 33,
      "?": 34,
      "@": 35,
      "[": 36,
      "\\": 37,
      "]": 38,
      "^": 39,
      "_": 40,
      "`": 41,
      "a": 42,
      "b": 43,
      "c": 44,
      "d": 45,
      "e": 46,
      "f": 47,
      "g": 48,
      "h": 49,
      "i": 50,
      "j": 51,
      "k": 52,
      "l": 53,
      "m": 54,
      "n": 55,
      "o": 56,
      "p": 57,
      "q": 58,
      "r": 59,
      "s": 60,
      "t": 61,
      "u": 62,
      "v": 63,
      "w": 64,
      "x": 65,
      "y": 66,
      "z": 67,
      "{": 68,
      "|": 69,
      "}": 70,
      "~": 71,
      "¡": 72,
      "¢": 73,
      "£": 74,
      "¤": 75,
      "¥": 76,
      "¦": 77,
      "§": 78,
      "¨": 79,
      "©": 80,
      "ª": 81,
      "«": 82,
      "¬": 83,
      "®": 84,
      "¯": 85,
      "°": 86,
      "±": 87,
      "²": 88,
      "³": 89,
      "´": 90,
      "µ": 91,
      "¶": 92,
      "·": 93,
      "¸": 94,
      "¹": 95,
      "º": 96,
      "»": 97,
      "¼": 98,
      "½": 99,
      "¾": 100,
      "¿": 101,
      "Â": 102,
      "Ã": 103,
      "Ä": 104,
      "Å": 105,
      "Æ": 106,
      "Ç": 107,
      "È": 108,
      "É": 109,
      "Ê": 110,
      "Ë": 111,
      "Î": 112,
      "Ï": 113,
      "Ð": 114,
      "Ñ": 115,
      "Ò": 116,
      "Ó": 117,
      "Õ": 118,
      "Ö": 119,
      "×": 120,
      "Ø": 121,
      "Ù": 122,
      "Ú": 123,
      "Û": 124,
      "Ü": 125,
      "à": 126,
      "á": 127,
      "â": 128,
      "ã": 129,
      "ä": 130,
      "å": 131,
      "æ": 132,
      "ç": 133,
      "è": 134,
      "é": 135,
      "ê": 136,
      "ï": 137,
      "ð": 138,
      "Ġ": 139,
      "Ģ": 140,
      "ģ": 141,
      "Ĥ": 142,
      "ĥ": 143,
      "Ħ": 144,
      "ħ": 145,
      "Ĩ": 146,
      "ĩ": 147,
      "Ī": 148,
      "ī": 149,
      "Ĭ": 150,
      "ĭ": 151,
      "Į": 152,
      "į": 153,
      "İ": 154,
      "ı": 155,
      "Ĳ": 156,
      "ĳ": 157,
      "Ĵ": 158,
      "ĵ": 159,
      "Ķ": 160,
      "ķ": 161,
      "ĸ": 162,
      "Ĺ": 163,
      "ĺ": 164,
      "Ļ": 165,
      "ļ": 166,
      "Ľ": 167,
      "ľ": 168,
      "Ŀ": 169,
      "ŀ": 170,
      "Ł": 171,
      "ł": 172,
      "Ń": 173,
      "Ġt": 174,
      "Ġa": 175,
      "in": 176,
      "he": 177,
      "re": 178,
      "Ġs": 179,
      "on": 180,
      "Ġc": 181,
      "er": 182,
      "Ġthe": 183,
      "Ġo": 184,
      "at": 185,
      "Ġb": 186,
      "an": 187,
      "ou": 188,
      "Ġp": 189,
      "Ġm": 190,
      "is": 191,
      "Ġf": 192,
      "es": 193,
      "Ġw": 194,
      "en": 195,
      "Ġd": 196,
      "or": 197,
      "it": 198,
      "al": 199,
      "Ġan": 200,
      "Ġto": 201,
      "Ġin": 202,
      "ar": 203,
      "le": 204,
      "ing": 205,
      "ed": 206,
      "ic": 207,
      "Ġy": 208,
      "Ġof": 209,
      "Ġand": 210,
      "Ġn": 211,
      "Ġh": 212,
      "Ġyou": 213,
      "Ġis": 214,
      "om": 215,
      "as": 216,
      "Ġl": 217,
      "ow": 218,
      "Ġg": 219,
      "Ġe": 220,
      "ion": 221,
      "il": 222,
      "us": 223,
      "et": 224,
      "ct": 225,
      "Ġre": 226,
      "Ġth": 227,
      "ve": 228,
      "Ġ'": 229,
      "Ġon": 230,
      "ro": 231,
      "ent": 232,
      "Ġare": 233,
      "Ġfor": 234,
      "am": 235,
      "ly": 236,
      "ot": 237,
      "ay": 238,
      "id": 239,
      ".'": 240,
      "st": 241,
      "Ġbe": 242,
      "ig": 243,
      "ut": 244,
      "Ġst": 245,
      "Ġor": 246,
      "Ġ1": 247,
      "ch": 248,
      "ol": 249,
      "ur": 250,
      "Ġit": 251,
      "Ġi": 252,
      "ce": 253,
      "ver": 254,
      "Ġyour": 255,
      "un": 256,
      "od": 257,
      ".',": 258,
      "Ġr": 259,
      "ge": 260,
      "ad": 261,
      "how": 262,
      "ll": 263,
      "ir": 264,
      "im": 265,
      "Ġ(": 266,
      "..": 267,
      "Ġv": 268,
      "Ġdo": 269,
      "Ġcan": 270,
      "Ġ2": 271,
      "Ġas": 272,
      "ation": 273,
      "wh": 274,
      "Ġcon": 275,
      "ith": 276,
      "se": 277,
      "ke": 278,
      "um": 279,
      "ul": 280,
      "ter": 281,
      "Ġwith": 282,
      "Ġch": 283,
      "th": 284,
      "Ġse": 285,
      "ab": 286,
      "ill": 287,
      "oun": 288,
      "Ġwh": 289,
      "are": 290,
      "Ġde": 291,
      "Ġthat": 292,
      "Ġus": 293,
      "Ġfr": 294,
      "pp": 295,
      "qu": 296,
      "Ġhe": 297,
      "what": 298,
      "ac": 299,
      "ate": 300,
      "ers": 301,
      "igh": 302,
      "Ġpro": 303,
      "ies": 304,
      "Ġmo": 305,
      "lo": 306,
      "ain": 307,
      "Ġwe": 308,
      "Ġha": 309,
      "Ġcom": 310,
      "00": 311,
      "Ġne": 312,
      "fe": 313,
      "Ġj": 314,
      "Ġk": 315,
      "ts": 316,
      "her": 317,
      "âĢ": 318,
      "res": 319,
      "'s": 320,
      "Ġat": 321,
      "ive": 322,
      "ess": 323,
      "up": 324,
      "Ġex": 325,
      "est": 326,
      "if": 327,
      "ap": 328,
      "ld": 329,
      "Ġle": 330,
      "os": 331,
      "Ġfrom": 332,
      "Ġper": 333,
      "Ġal": 334,
      "Ġman": 335,
      "Ġnot": 336,
      "Ġsh": 337,
      "Ġun": 338,
      "and": 339,
      "age": 340,
      "ight": 341,
      "Ġhave": 342,
      "Ġtr": 343,
      "ally": 344,
      "...": 345,
      "em": 346,
      "end": 347,
      "our": 348,
      "Ġby": 349,
      "one": 350,
      "ant": 351,
      "iv": 352,
      "ist": 353,
      "red": 354,
      "ine": 355,
      "ame": 356,
      "Ġ...": 357,
      "Ġcal": 358,
      "pe": 359,
      "Ġsu": 360,
      "Ġco": 361,
      "act": 362,
      "Ġac": 363,
      "Ġif": 364,
      "Ġta": 365,
      "ment": 366,
      "Ġ[": 367,
      "el": 368,
      "Ġgo": 369,
      "ast": 370,
      "ick": 371,
      "Ġpl": 372,
      "ide": 373,
      "ity": 374,
      "ome": 375,
      "art": 376,
      "Ġwill": 377,
      "ong": 378,
      "ard": 379,
      "ag": 380,
      "ip": 381,
      "Ġwor": 382,
      "Ġapp": 383,
      "op": 384,
      "Ġ3": 385,
      "ib": 386,
      "Ġall": 387,
      "Ġwhe": 388,
      "ure": 389,
      "Ġthey": 390,
      "ort": 391,
      "ile": 392,
      "Ġme": 393,
      "Ġmany": 394,
      "ans": 395,
      "Ġab": 396,
      "ice": 397,
      "ie": 398,
      "Ġbut": 399,
      "Ġ['": 400,
      "ound": 401,
      "Ġday": 402,
      "Ġdr": 403,
      "Ġpre": 404,
      "ck": 405,
      "Ġgr": 406,
      "Ġma": 407,
      "Ġad": 408,
      "cl": 409,
      "ren": 410,
      "ear": 411,
      "ree": 412,
      "ud": 413,
      "Ġso": 414,
      "iz": 415,
      "ia": 416,
      "out": 417,
      "ust": 418,
      "Ġcont": 419,
      "Ġone": 420,
      "ack": 421,
      "ĠâĢ": 422,
      "pt": 423,
      "Ġdoes": 424,
      "Ġlo": 425,
      "all": 426,
      "ber": 427,
      "able": 428,
      "Ġcomp": 429,
      "Ġthis": 430,
      ".']": 431,
      "ass": 432,
      "Ġfe": 433,
      "Ġ20": 434,
      "Ġaf": 435,
      "ial": 436,
      "Ġhas": 437,
      "we": 438,
      "ich": 439,
      "Ġup": 440,
      "Ġcl": 441,
      "lect": 442,
      "ount": 443,
      "ould": 444,
      "so": 445,
      "Ġget": 446,
      "Ġhow": 447,
      "aus": 448,
      "ions": 449,
      "ne": 450,
      "Ġ\"": 451,
      "ated": 452,
      "Ġsp": 453,
      "gh": 454,
      "Ġ$": 455,
      "ater": 456,
      "own": 457,
      "Ġ4": 458,
      "Ġmu": 459,
      "Ġen": 460,
      "te": 461,
      "ks": 462,
      "Ġam": 463,
      "Ġar": 464,
      "ind": 465,
      "Ġlong": 466,
      "Ġthere": 467,
      "ress": 468,
      "Ġno": 469,
      "Ġli": 470,
      "Ġsc": 471,
      "Ġchan": 472,
      "ary": 473,
      "ore": 474,
      "Ġwhen": 475,
      "ther": 476,
      "ough": 477,
      "Ġmay": 478,
      "Ġpr": 479,
      "Ġbet": 480,
      "Ġacc": 481,
      "Ġtw": 482,
      "Ġmuch": 483,
      "Ġ5": 484,
      "Ġ',": 485,
      "ail": 486,
      "Ġbr": 487,
      "ime": 488,
      "Ġte": 489,
      "ue": 490,
      "Ġdis": 491,
      "Ġph": 492,
      "Ġpo": 493,
      "der": 494,
      "Ġsy": 495,
      "Ġmore": 496,
      "ire": 497,
      "king": 498,
      "Ġmost": 499,
      "per": 500,
      "Ġqu": 501,
      "ase": 502,
      "Ġwhich": 503,
      "ens": 504,
      "ub": 505,
      "Ġafter": 506,
      "Ġyear": 507,
      "Ġout": 508,
      "Ġthan": 509,
      "ph": 510,
      "Ġfl": 511,
      "du": 512,
      "ord": 513,
      "Ġblo": 514,
      "ace": 515,
      "fect": 516,
      "ause": 517,
      "ep": 518,
      "Ġro": 519,
      "av": 520,
      "Ġneed": 521,
      "ories": 522,
      "urn": 523,
      "ach": 524,
      "Ġnew": 525,
      "ult": 526,
      "to": 527,
      "orm": 528,
      "les": 529,
      "ite": 530,
      "ous": 531,
      "Ġnum": 532,
      "Ġser": 533,
      "'t": 534,
      "Ġty": 535,
      "og": 536,
      "Ġsome": 537,
      "Ġany": 538,
      "Ġwas": 539,
      "Ġres": 540,
      "ical": 541,
      "ance": 542,
      "Ġalso": 543,
      "ok": 544,
      "Ġcar": 545,
      "ings": 546,
      "Ġother": 547,
      "very": 548,
      "ign": 549,
      "Ġim": 550,
      "Ġ6": 551,
      "Ġmon": 552,
      "do": 553,
      "Ġcalories": 554,
      "ween": 555,
      "Ġtheir": 556,
      "mon": 557,
      "anc": 558,
      "Ġbetween": 559,
      "Ġtwo": 560,
      "Ġsa": 561,
      "Ġx": 562,
      "led": 563,
      "Ġtake": 564,
      ").": 565,
      "Ġabout": 566,
      "gn": 567,
      "Ġwater": 568,
      "Ġche": 569,
      "Ġuse": 570,
      "Ġrec": 571,
      "ry": 572,
      "can": 573,
      "pl": 574,
      "Ġpregn": 575,
      "Ġgood": 576,
      "Ġcol": 577,
      "ak": 578,
      "Ġu": 579,
      "Ġpe": 580,
      "bo": 581,
      "ade": 582,
      "Ġoff": 583,
      "ates": 584,
      "Ġinc": 585,
      "Ġused": 586,
      "Ġwee": 587,
      "whe": 588,
      "Ġfo": 589,
      "Ġshould": 590,
      "ix": 591,
      "reat": 592,
      "Ġtime": 593,
      "âĢĿ": 594,
      "ations": 595,
      "Ġbo": 596,
      "Ġmin": 597,
      "Ġwho": 598,
      "Ġchange": 599,
      "ason": 600,
      "Ġname": 601,
      "ish": 602,
      "ra": 603,
      "feren": 604,
      "ĠâĢľ": 605,
      "Ġmar": 606,
      "ition": 607,
      "ction": 608,
      "als": 609,
      "Ġ201": 610,
      "Ġhour": 611,
      "Ġdif": 612,
      "Ġdays": 613,
      "Ġform": 614,
      "Ġmy": 615,
      "clud": 616,
      "Ġem": 617,
      "Ġthen": 618,
      "Ġnumber": 619,
      "Ġz": 620,
      "port": 621,
      "Ġover": 622,
      "Ġbec": 623,
      "Ġbl": 624,
      "gs": 625,
      "Ġlike": 626,
      "amp": 627,
      "000": 628,
      "ose": 629,
      "ually": 630,
      "Ġkn": 631,
      "Ġblood": 632,
      "Ġsm": 633,
      "ors": 634,
      "Ġgen": 635,
      "Ġspe": 636,
      "Ġset": 637,
      "con": 638,
      "Ġ10": 639,
      "ents": 640,
      "Ġsame": 641,
      "ft": 642,
      "Ġ-": 643,
      "ell": 644,
      "Ġcons": 645,
      "oth": 646,
      "Ġonly": 647,
      "ams": 648,
      "Ġev": 649,
      "Ġequ": 650,
      "vel": 651,
      "ian": 652,
      "Ġinclud": 653,
      "',": 654,
      "ays": 655,
      "Ġadd": 656,
      "ri": 657,
      "hes": 658,
      "Ġear": 659,
      "Ġfir": 660,
      "lic": 661,
      "Ġdi": 662,
      "Ġ8": 663,
      "Ġ7": 664,
      "Ġdifferen": 665,
      "Ġwhile": 666,
      "cent": 667,
      "20": 668,
      "Ġcost": 669,
      "Ġmonth": 670,
      "ild": 671,
      "bs": 672,
      "Ġact": 673,
      "Ġpass": 674,
      "Ġwork": 675,
      "ons": 676,
      "Ġmake": 677,
      "ible": 678,
      "Ġind": 679,
      "orn": 680,
      "low": 681,
      "ds": 682,
      "ence": 683,
      "Ġfirst": 684,
      "Ġinto": 685,
      "its": 686,
      "Ġpers": 687,
      "ang": 688,
      "Ġcr": 689,
      "Ġke": 690,
      "Ġthem": 691,
      "ps": 692,
      "aw": 693,
      "Ġmed": 694,
      "fore": 695,
      "ert": 696,
      "Ġdown": 697,
      "Ġprodu": 698,
      "ory": 699,
      "Ġseason": 700,
      "ific": 701,
      "'re": 702,
      "Ġop": 703,
      "ular": 704,
      "Ġpart": 705,
      "Ġsk": 706,
      "vers": 707,
      "li": 708,
      "Ġhigh": 709,
      "ten": 710,
      "Ġits": 711,
      "Ġtrans": 712,
      "old": 713,
      "Ġwhat": 714,
      "Ġair": 715,
      "Ġback": 716,
      "erm": 717,
      "Ġselect": 718,
      "Ġmade": 719,
      "ric": 720,
      "Ġrequ": 721,
      "Ġthree": 722,
      "Ġperson": 723,
      "Ġag": 724,
      "ating": 725,
      "),": 726,
      "inal": 727,
      "io": 728,
      "Ġ9": 729,
      "Ġgener": 730,
      "int": 731,
      "Ġfree": 732,
      "oms": 733,
      "Ġ=": 734,
      "Ġyears": 735,
      "verage": 736,
      "ces": 737,
      "Ġsign": 738,
      "ium": 739,
      "vice": 740,
      "gr": 741,
      "uring": 742,
      "ink": 743,
      "Ġplay": 744,
      "day": 745,
      "Ġinst": 746,
      "Ġ12": 747,
      "Ġreg": 748,
      "Ġtyp": 749,
      "Ġpercent": 750,
      "Ġmean": 751,
      "alth": 752,
      "Ġinter": 753,
      "cess": 754,
      "Ġdep": 755,
      "ins": 756,
      "Ġclick": 757,
      "Ġthr": 758,
      "Ġopen": 759,
      "Ġbu": 760,
      "Ġval": 761,
      "Ġhours": 762,
      "Ġpay": 763,
      "iss": 764,
      "ting": 765,
      "Ġjust": 766,
      "Ġbeen": 767,
      "Ġav": 768,
      "ody": 769,
      "ual": 770,
      "Ġaccount": 771,
      "Ġcommon": 772,
      "Ġ19": 773,
      "Ġlow": 774,
      "Ġdes": 775,
      "phone": 776,
      "ople": 777,
      "Ġve": 778,
      "Ġeach": 779,
      "Ġgl": 780,
      "imes": 781,
      "Ġtax": 782,
      "ize": 783,
      "Ġpeople": 784,
      "co": 785,
      "Ġaverage": 786,
      "the": 787,
      "Ġrel": 788,
      "fl": 789,
      "ows": 790,
      "cur": 791,
      "Ġcontain": 792,
      "ats": 793,
      "Ġchar": 794,
      "Ġunder": 795,
      "iod": 796,
      "ased": 797,
      "fer": 798,
      "mo": 799,
      "Ġbefore": 800,
      "ty": 801,
      "Ġpress": 802,
      "Ġfol": 803,
      "Ġshe": 804,
      "Ġthese": 805,
      "Ġmet": 806,
      "ys": 807,
      "Ġusually": 808,
      "get": 809,
      "Ġjo": 810,
      "Ġweeks": 811,
      "Ġsym": 812,
      "Ġent": 813,
      "oss": 814,
      "ton": 815,
      "Ġevery": 816,
      "Ġcup": 817,
      "Ġperiod": 818,
      "Ġhealth": 819,
      "Ġcard": 820,
      "Ġvis": 821,
      "Ġhel": 822,
      "ĠâĢĵ": 823,
      "Ġnet": 824,
      "ancy": 825,
      "Ġbre": 826,
      "form": 827,
      "Ġduring": 828,
      "Ġburn": 829,
      "Ġexp": 830,
      "Ġcause": 831,
      "Ġshow": 832,
      "Ġef": 833,
      "Ġpar": 834,
      "Ġfood": 835,
      "Ġold": 836,
      "Ġiphone": 837,
      "stem": 838,
      "reen": 839,
      "ata": 840,
      "Ġsim": 841,
      "Ġcell": 842,
      "Ġbody": 843,
      "ode": 844,
      "Ġsal": 845,
      "Ġcount": 846,
      "where": 847,
      "Ġsw": 848,
      "ited": 849,
      "cial": 850,
      "Ġcur": 851,
      "ise": 852,
      "50": 853,
      "Ġstart": 854,
      "ci": 855,
      "air": 856,
      "ically": 857,
      "ger": 858,
      "Ġret": 859,
      "Ġins": 860,
      "xt": 861,
      "Ġfil": 862,
      "Ġbecause": 863,
      "ments": 864,
      "Ġloc": 865,
      "Ġpregnancy": 866,
      "ect": 867,
      "Ġmus": 868,
      "Ġeng": 869,
      "ired": 870,
      "ange": 871,
      "ef": 872,
      "Ġsuch": 873,
      "Ġsystem": 874,
      "Ġbab": 875,
      "Ġwant": 876,
      "Ġthrough": 877,
      "Ġstill": 878,
      "Ġdon": 879,
      "ath": 880,
      "Ġfour": 881,
      "Ġlit": 882,
      "Ġpregnant": 883,
      "Ġfun": 884,
      "Ġphot": 885,
      "Ġsub": 886,
      "ics": 887,
      "sw": 888,
      "cul": 889,
      "gar": 890,
      "Ġdef": 891,
      "ational": 892,
      "Ġpain": 893,
      "rit": 894,
      "tle": 895,
      "ble": 896,
      "click": 897,
      "Ġweight": 898,
      "Ġmonths": 899,
      "Ġfind": 900,
      "ms": 901,
      "iew": 902,
      "Ġed": 903,
      "nect": 904,
      "ever": 905,
      "Ġmen": 906,
      "Ġtest": 907,
      "ness": 908,
      "Ġelect": 909,
      "Ġstate": 910,
      "Ġboth": 911,
      "Ġstand": 912,
      "ature": 913,
      "cle": 914,
      "Ġcheck": 915,
      "ced": 916,
      "Ġstr": 917,
      "ily": 918,
      "Ġbest": 919,
      "Ġcalled": 920,
      "kes": 921,
      ".\"": 922,
      "land": 923,
      "com": 924,
      "ving": 925,
      "pro": 926,
      "Ġpres": 927,
      "Ġaround": 928,
      "Ġsafe": 929,
      "Ġmil": 930,
      "ash": 931,
      "ull": 932,
      "Ġhowever": 933,
      "cr": 934,
      "Ġsupp": 935,
      "Ġsympt": 936,
      "af": 937,
      "ank": 938,
      "Ġlevel": 939,
      "Ġmeans": 940,
      "Ġlast": 941,
      "Ġeffect": 942,
      "atch": 943,
      "ative": 944,
      "Ġeven": 945,
      "po": 946,
      "Ġsee": 947,
      "Ġtap": 948,
      "Ġright": 949,
      "Ġsur": 950,
      "ug": 951,
      "Ġcho": 952,
      "Ġprote": 953,
      "Ġend": 954,
      "ted": 955,
      "Ġfact": 956,
      "ines": 957,
      "iness": 958,
      "ets": 959,
      "ices": 960,
      "wn": 961,
      "omet": 962,
      "Ġgrams": 963,
      "gan": 964,
      "Ġdata": 965,
      "ages": 966,
      "az": 967,
      "Ġwhere": 968,
      "erg": 969,
      "Ġred": 970,
      "Ġfile": 971,
      "Ġage": 972,
      "Ġleg": 973,
      "ake": 974,
      "Ġrun": 975,
      "ident": 976,
      "ious": 977,
      "tr": 978,
      "yd": 979,
      "eric": 980,
      "Ġher": 981,
      "Ġhis": 982,
      "ars": 983,
      "Ġfat": 984,
      "Ġsymptoms": 985,
      "ility": 986,
      "ones": 987,
      "cy": 988,
      "Ġoften": 989,
      "Ġusing": 990,
      "ied": 991,
      "line": 992,
      "Ġwell": 993,
      "load": 994,
      "Ġhelp": 995,
      "Ġprov": 996,
      "Ġmain": 997,
      "Ġpow": 998,
      "Ġinfect": 999,
      "ron": 1000,
      "Ġcre": 1001,
      "Ġansw": 1002,
      "Ġ2019": 1003,
      "tings": 1004,
      "Ġtype": 1005,
      "ants": 1006,
      "Ġminut": 1007,
      "Ġvery": 1008,
      "ames": 1009,
      "Ġgu": 1010,
      "Ġ100": 1011,
      "ject": 1012,
      "Ġconnect": 1013,
      "Ġsmall": 1014,
      "Ġcent": 1015,
      "Ġwom": 1016,
      "go": 1017,
      "Ġ>": 1018,
      "Ġwind": 1019,
      "ots": 1020,
      "when": 1021,
      "Ġlar": 1022,
      "Ġcontro": 1023,
      "Ġben": 1024,
      "Ġweek": 1025,
      "Ġbir": 1026,
      "Ġep": 1027,
      "Ġprof": 1028,
      "ures": 1029,
      "ning": 1030,
      "Ġfound": 1031,
      "cho": 1032,
      "Ġnow": 1033,
      "Ġchild": 1034,
      "Ġsize": 1035,
      "Ġel": 1036,
      "ption": 1037,
      "Ġstud": 1038,
      "Ġdifferent": 1039,
      "rent": 1040,
      "ork": 1041,
      "Ġhome": 1042,
      "Ġpressure": 1043,
      "Ġproduct": 1044,
      "hing": 1045,
      "ale": 1046,
      "ah": 1047,
      "bers": 1048,
      "ss": 1049,
      "Ġanswer": 1050,
      "Ġrep": 1051,
      "Ġsto": 1052,
      "Ġdist": 1053,
      "ouse": 1054,
      "Ġdiv": 1055,
      "ense": 1056,
      "Ġavail": 1057,
      "Ġcle": 1058,
      "Ġmem": 1059,
      "Ġsettings": 1060,
      "hip": 1061,
      "Ġameric": 1062,
      "oup": 1063,
      "Ġnorm": 1064,
      "arm": 1065,
      "ives": 1066,
      "Ġclo": 1067,
      "Ġmod": 1068,
      "Ġic": 1069,
      "Ġside": 1070,
      "Ġbus": 1071,
      "Ġtop": 1072,
      "Ġmust": 1073,
      "ved": 1074,
      "ful": 1075,
      "Ġwould": 1076,
      "Ġoil": 1077,
      "br": 1078,
      "Ġskin": 1079,
      "Ġlight": 1080,
      "Ġfollow": 1081,
      "olog": 1082,
      "Ġ18": 1083,
      "Ġwere": 1084,
      "Ġwithin": 1085,
      "other": 1086,
      "any": 1087,
      ")',": 1088,
      "Ġavailable": 1089,
      "oney": 1090,
      "10": 1091,
      "Ġtreat": 1092,
      "Ġlic": 1093,
      "Ġknown": 1094,
      "Ġcomm": 1095,
      "ends": 1096,
      "Ġcert": 1097,
      "Ġdifference": 1098,
      "Ġsqu": 1099,
      "Ġown": 1100,
      "Ġworld": 1101,
      "Ġmult": 1102,
      "ave": 1103,
      "gen": 1104,
      "hed": 1105,
      "Ġapple": 1106,
      "Ġbaby": 1107,
      "ict": 1108,
      "less": 1109,
      "of": 1110,
      "atur": 1111,
      "Ġdet": 1112,
      "Ġvar": 1113,
      "Ġmill": 1114,
      "Ġheart": 1115,
      "ids": 1116,
      "Ġtem": 1117,
      "ges": 1118,
      "'ll": 1119,
      "Ġour": 1120,
      "ls": 1121,
      "ye": 1122,
      "Ġant": 1123,
      "Ġcomple": 1124,
      "Ġtimes": 1125,
      "iving": 1126,
      "ately": 1127,
      "Ġyes": 1128,
      "ney": 1129,
      "ases": 1130,
      "Ġref": 1131,
      "who": 1132,
      "Ġdogs": 1133,
      "tal": 1134,
      "Ġstates": 1135,
      "ark": 1136,
      "why": 1137,
      "Ġob": 1138,
      "Ġcurrent": 1139,
      "Ġbro": 1140,
      "Ġ0": 1141,
      "Ġwithout": 1142,
      "Ġchr": 1143,
      "Ġeas": 1144,
      "Ġknow": 1145,
      "Ġhead": 1146,
      "Ġallow": 1147,
      "atter": 1148,
      "Ġvide": 1149,
      "ax": 1150,
      "ints": 1151,
      "acter": 1152,
      "Ġlist": 1153,
      "Ġincre": 1154,
      "Ġinclude": 1155,
      "Ġrece": 1156,
      "Ġeat": 1157,
      "Ġ15": 1158,
      "Ġdec": 1159,
      "Ġappro": 1160,
      "plo": 1161,
      "ral": 1162,
      "Ġtv": 1163,
      "Ġway": 1164,
      "uc": 1165,
      "Ġ30": 1166,
      "Ġmedic": 1167,
      "outh": 1168,
      "Ġint": 1169,
      "Ġ&": 1170,
      "Ġext": 1171,
      "Ġsn": 1172,
      "Ġsl": 1173,
      "uct": 1174,
      "tap": 1175,
      "Ġcaus": 1176,
      "Ġsugar": 1177,
      "me": 1178,
      "uter": 1179,
      "Ġdire": 1180,
      "ounds": 1181,
      "Ġhair": 1182,
      "ities": 1183,
      "gin": 1184,
      "ven": 1185,
      "ĠâĢĶ": 1186,
      "Ġleast": 1187,
      "Ġ2020": 1188,
      "Ġblock": 1189,
      "box": 1190,
      "be": 1191,
      "Ġexce": 1192,
      "Ġfull": 1193,
      "Ġaut": 1194,
      "Ġhum": 1195,
      "Ġsin": 1196,
      "ient": 1197,
      "pect": 1198,
      "Ġsomeone": 1199,
      "Ġdevice": 1200,
      "ator": 1201,
      "Ġpot": 1202,
      "Ġoc": 1203,
      "Ġgame": 1204,
      "Ġminutes": 1205,
      "Ġcap": 1206,
      "Ġbeing": 1207,
      "Ġless": 1208,
      "Ġprocess": 1209,
      "xim": 1210,
      "Ġeg": 1211,
      "ording": 1212,
      "lf": 1213,
      "Ġaw": 1214,
      "Ġdownload": 1215,
      "ves": 1216,
      "Ġ16": 1217,
      "Ġrem": 1218,
      "word": 1219,
      "Ġsomet": 1220,
      "Ġbirth": 1221,
      "app": 1222,
      "Ġinv": 1223,
      "select": 1224,
      "Ġsing": 1225,
      "Ġsol": 1226,
      "Ġvit": 1227,
      "Ġmoney": 1228,
      "Ġsecon": 1229,
      "Ġwhite": 1230,
      "Ġamount": 1231,
      "ond": 1232,
      "Ġcond": 1233,
      "Ġgreat": 1234,
      "Ġequal": 1235,
      "Ġstandard": 1236,
      "Ġkeep": 1237,
      "uf": 1238,
      "ized": 1239,
      "Ġfeel": 1240,
      "Ġreal": 1241,
      "Ġur": 1242,
      "Ġepis": 1243,
      "Ġmultip": 1244,
      "arch": 1245,
      "Ġface": 1246,
      "Ġspec": 1247,
      "Ġbenef": 1248,
      "Ġver": 1249,
      "cer": 1250,
      "Ġincluding": 1251,
      "Ġqual": 1252,
      "velo": 1253,
      "pr": 1254,
      "Ġleft": 1255,
      "Ġexper": 1256,
      "Ġcred": 1257,
      "Ġpur": 1258,
      "Ġbot": 1259,
      "Ġexamp": 1260,
      "curity": 1261,
      "ience": 1262,
      "Ġflu": 1263,
      "Ġaccording": 1264,
      "ters": 1265,
      "Ġpol": 1266,
      "Ġrest": 1267,
      "does": 1268,
      "Ġnon": 1269,
      "idered": 1270,
      "amin": 1271,
      "Ġconsidered": 1272,
      "Ġphotos": 1273,
      "Ġass": 1274,
      "Ġbusiness": 1275,
      "Ġfew": 1276,
      "Ġoun": 1277,
      "omm": 1278,
      "ending": 1279,
      "Ġview": 1280,
      "Ġhand": 1281,
      "Ġcy": 1282,
      "Ġbas": 1283,
      "Ġtransfer": 1284,
      "Ġunited": 1285,
      "Ġtab": 1286,
      "Ġwomen": 1287,
      "Ġpower": 1288,
      "Ġcalcul": 1289,
      "Ġterm": 1290,
      "Ġclass": 1291,
      "Ġonce": 1292,
      "Ġvol": 1293,
      "Ġstre": 1294,
      "Ġatt": 1295,
      "vices": 1296,
      "Ġsecurity": 1297,
      "Ġorig": 1298,
      "Ġtoo": 1299,
      "Ġnormal": 1300,
      "Ġproper": 1301,
      "Ġpop": 1302,
      "ute": 1303,
      "ital": 1304,
      "Ġbig": 1305,
      "Ġposs": 1306,
      "Ġsquare": 1307,
      "Ġann": 1308,
      "Ġdirect": 1309,
      "Ġrele": 1310,
      "els": 1311,
      "Ġrate": 1312,
      "Ġ11": 1313,
      "ider": 1314,
      "Ġdate": 1315,
      "Ġcells": 1316,
      "Ġtypes": 1317,
      "Ġplan": 1318,
      "Ġ14": 1319,
      "Ġfive": 1320,
      "Ġfam": 1321,
      "Ġpassword": 1322,
      "eding": 1323,
      "Ġgenerally": 1324,
      "Ġsix": 1325,
      "ood": 1326,
      "Ġscreen": 1327,
      "Ġris": 1328,
      "Ġservice": 1329,
      "Ġshort": 1330,
      "Ġlife": 1331,
      "12": 1332,
      "Ġdevelo": 1333,
      "Ġrecomm": 1334,
      "ries": 1335,
      "Ġcour": 1336,
      "Ġfin": 1337,
      "Ġir": 1338,
      "Ġlive": 1339,
      "Ġintern": 1340,
      "ivers": 1341,
      "Ġonline": 1342,
      "ues": 1343,
      "Ġcould": 1344,
      "Ġest": 1345,
      "ier": 1346,
      "Ġfeet": 1347,
      "Ġes": 1348,
      "Ġpost": 1349,
      "Ġuk": 1350,
      "Ġsun": 1351,
      "Ġmeas": 1352,
      "iver": 1353,
      "Ġpercentage": 1354,
      "Ġhouse": 1355,
      "Ġimport": 1356,
      "Ġju": 1357,
      "Ġtotal": 1358,
      "ution": 1359,
      "ults": 1360,
      "Ġsocial": 1361,
      "Ġhig": 1362,
      "Ġseries": 1363,
      "Ġphone": 1364,
      "chool": 1365,
      "Ġcome": 1366,
      "ield": 1367,
      "Ġunt": 1368,
      "Ġcor": 1369,
      "Ġnut": 1370,
      "Ġappear": 1371,
      "str": 1372,
      "Ġanim": 1373,
      "Ġlaw": 1374,
      "book": 1375,
      "Ġenter": 1376,
      "Ġmeaning": 1377,
      "ides": 1378,
      "man": 1379,
      "Ġtra": 1380,
      "Ġsince": 1381,
      "Ġcontrol": 1382,
      "Ġ25": 1383,
      "gether": 1384,
      "Ġcompany": 1385,
      "Ġconf": 1386,
      "Ġbal": 1387,
      "Ġmark": 1388,
      "Ġpoints": 1389,
      "Ġ24": 1390,
      "Ġfri": 1391,
      "tern": 1392,
      "Ġwatch": 1393,
      "Ġbad": 1394,
      "Ġreturn": 1395,
      "Ġwon": 1396,
      "ublic": 1397,
      "eng": 1398,
      "vent": 1399,
      "Ġschool": 1400,
      "na": 1401,
      "Ġvideo": 1402,
      "Ġincome": 1403,
      "Ġdig": 1404,
      "Ġvalue": 1405,
      "Ġgeneral": 1406,
      "Ġcontains": 1407,
      "Ġbank": 1408,
      "gest": 1409,
      "Ġtypically": 1410,
      "Ġtogether": 1411,
      "Ġsecond": 1412,
      "Ġbar": 1413,
      "Ġrequire": 1414,
      "Ġhal": 1415,
      "ards": 1416,
      "read": 1417,
      "Ġdog": 1418,
      "Ġemail": 1419,
      "30": 1420,
      "Ġwal": 1421,
      "Ġsimp": 1422,
      "Ġtemper": 1423,
      "Ġapplic": 1424,
      "Ġswe": 1425,
      "ways": 1426,
      "Ġho": 1427,
      "Ġnext": 1428,
      "hic": 1429,
      "Ġwindows": 1430,
      "Ġmight": 1431,
      "ram": 1432,
      "Ġcomputer": 1433,
      "Ġvir": 1434,
      "Ġrequired": 1435,
      "Ġuntil": 1436,
      "Ġturn": 1437,
      "Ġdefin": 1438,
      "Ġid": 1439,
      "action": 1440,
      "Ġarea": 1441,
      "Ġ.": 1442,
      "Ġdevelop": 1443,
      "Ġmic": 1444,
      "Ġblack": 1445,
      "Ġbutton": 1446,
      "Ġcolor": 1447,
      "Ġdeg": 1448,
      "ergy": 1449,
      "ner": 1450,
      "amm": 1451,
      "rop": 1452,
      "ains": 1453,
      "ills": 1454,
      "Ġcontr": 1455,
      "Ġearly": 1456,
      "Ġoffic": 1457,
      "ex": 1458,
      "Ġemplo": 1459,
      "ube": 1460,
      "ross": 1461,
      "Ġproducts": 1462,
      "Ġsle": 1463,
      "Ġamerican": 1464,
      "lish": 1465,
      "Ġmac": 1466,
      "Ġthose": 1467,
      "Ġlittle": 1468,
      "Ġglut": 1469,
      "60": 1470,
      "ency": 1471,
      "Ġbecome": 1472,
      "ina": 1473,
      "Ġrepl": 1474,
      "Ġinfection": 1475,
      "Ġplace": 1476,
      "Ġwar": 1477,
      "Ġlicense": 1478,
      "Ġhard": 1479,
      "ional": 1480,
      "ox": 1481,
      "Ġ200": 1482,
      "Ġlead": 1483,
      "ern": 1484,
      "Ġagain": 1485,
      "ified": 1486,
      "Ġdise": 1487,
      "Ġchoose": 1488,
      "Ġ50": 1489,
      "Ġthough": 1490,
      "uck": 1491,
      "Ġacid": 1492,
      "Ġexample": 1493,
      "Ġcook": 1494,
      "ety": 1495,
      "Ġfoot": 1496,
      "Ġkey": 1497,
      "Ġcredit": 1498,
      "Ġrecommend": 1499,
      "Ġcare": 1500,
      "Ġdam": 1501,
      "Ġcups": 1502,
      "Ġbetter": 1503,
      "Ġword": 1504,
      "work": 1505,
      "sh": 1506,
      "ists": 1507,
      "Ġlim": 1508,
      "Ġmess": 1509,
      "Ġlab": 1510,
      "Ġtakes": 1511,
      "Ġorder": 1512,
      "Ġvisa": 1513,
      "Ġgluten": 1514,
      "Ġfast": 1515,
      "Ġmenu": 1516,
      "Ġ40": 1517,
      "aid": 1518,
      "med": 1519,
      "Ġmarri": 1520,
      "Ġgrow": 1521,
      "Ġhol": 1522,
      "though": 1523,
      "Ġinform": 1524,
      "Ġcanad": 1525,
      "Ġdrive": 1526,
      "Ġgroup": 1527,
      "rap": 1528,
      "Ġcit": 1529,
      "Ġprotein": 1530,
      "Ġps": 1531,
      "Ġwa": 1532,
      "Ġhapp": 1533,
      "Ġdrin": 1534,
      "Ġmove": 1535,
      "Ġdry": 1536,
      "Ġhad": 1537,
      "Ġxbox": 1538,
      "Ġrange": 1539,
      "Ġdrink": 1540,
      "ival": 1541,
      "Ġeffects": 1542,
      "ump": 1543,
      "Ġpage": 1544,
      "Ġremo": 1545,
      "eral": 1546,
      "Ġnatur": 1547,
      "Ġsho": 1548,
      "Ġanother": 1549,
      "Ġbel": 1550,
      "Ġline": 1551,
      "']": 1552,
      "ĠÂ": 1553,
      "ane": 1554,
      "Ġstar": 1555,
      "Ġlonger": 1556,
      "ior": 1557,
      "oud": 1558,
      "Ġmaj": 1559,
      "fic": 1560,
      "ither": 1561,
      "itive": 1562,
      "Ġpack": 1563,
      "Ġproble": 1564,
      "orts": 1565,
      "Ġlarge": 1566,
      "âĢĶ": 1567,
      "Ġinches": 1568,
      "Ġcomplete": 1569,
      "Ġread": 1570,
      "Ġresult": 1571,
      "ym": 1572,
      "Ġput": 1573,
      "ism": 1574,
      "Ġalthough": 1575,
      "Ġnational": 1576,
      "Ġtravel": 1577,
      "âĢĵ": 1578,
      "ather": 1579,
      "Ġlower": 1580,
      "ula": 1581,
      "Ġgames": 1582,
      "Ġmilk": 1583,
      "new": 1584,
      "ume": 1585,
      "Ġlet": 1586,
      "Ġfiles": 1587,
      "Ġoccur": 1588,
      "Ġhold": 1589,
      "cum": 1590,
      "Ġpat": 1591,
      "Ġconver": 1592,
      "de": 1593,
      "Ġprofile": 1594,
      "Ġworth": 1595,
      "ights": 1596,
      "ify": 1597,
      "che": 1598,
      "Ġsleep": 1599,
      "Ġorgan": 1600,
      "Ġnumbers": 1601,
      "Ġnor": 1602,
      "Ġ/": 1603,
      "Ġcall": 1604,
      "Ġele": 1605,
      "Ġrisk": 1606,
      "Ġchick": 1607,
      "Ġste": 1608,
      "Ġfed": 1609,
      "Ġkil": 1610,
      "Ġlegal": 1611,
      "au": 1612,
      "Ġhot": 1613,
      "Ġpossible": 1614,
      "ipt": 1615,
      "Ġrecord": 1616,
      "Ġounces": 1617,
      "25": 1618,
      "angu": 1619,
      "Ġhyd": 1620,
      "eto": 1621,
      "flix": 1622,
      "Ġmajor": 1623,
      "Ġaddress": 1624,
      "yl": 1625,
      "Ġcomb": 1626,
      "Ġ13": 1627,
      "Ġredu": 1628,
      "ns": 1629,
      "Ġwords": 1630,
      "Ġvari": 1631,
      "Ġdue": 1632,
      "Ġbox": 1633,
      "uary": 1634,
      "Ġsupport": 1635,
      "une": 1636,
      "Ġalways": 1637,
      "Ġprogr": 1638,
      "xic": 1639,
      "Ġring": 1640,
      "iting": 1641,
      "Ġbrand": 1642,
      "Ġcust": 1643,
      "Ġenergy": 1644,
      "not": 1645,
      "Ġbased": 1646,
      "Ġnetflix": 1647,
      "hol": 1648,
      "vis": 1649,
      "Ġsup": 1650,
      "Ġlevels": 1651,
      "Ġsay": 1652,
      "Ġmillion": 1653,
      "Ġvehic": 1654,
      "ik": 1655,
      "Ġopt": 1656,
      "oid": 1657,
      "Ġbott": 1658,
      "Ġpos": 1659,
      "ulation": 1660,
      "Ġdesign": 1661,
      "Ġbenefits": 1662,
      "bile": 1663,
      "ipp": 1664,
      "ients": 1665,
      "Ġdisease": 1666,
      "vern": 1667,
      "Ġfunction": 1668,
      "Ġhalf": 1669,
      "ken": 1670,
      "Ġaffect": 1671,
      "let": 1672,
      "Ġpassport": 1673,
      "open": 1674,
      "py": 1675,
      "ctor": 1676,
      "Ġinformation": 1677,
      "play": 1678,
      "ires": 1679,
      "ounts": 1680,
      "lling": 1681,
      "Ġtemperature": 1682,
      "Ġbuy": 1683,
      "ison": 1684,
      "Ġwin": 1685,
      "ips": 1686,
      "rest": 1687,
      "Ġaccess": 1688,
      "Ġinte": 1689,
      "tain": 1690,
      "Ġgive": 1691,
      "min": 1692,
      "Ġwrit": 1693,
      "Ġlangu": 1694,
      "odes": 1695,
      "col": 1696,
      "Ġplus": 1697,
      "Ġable": 1698,
      "mit": 1699,
      "Ġsingle": 1700,
      "Ġdepending": 1701,
      "Ġsour": 1702,
      "Ġfamily": 1703,
      "Ġnight": 1704,
      "Ġble": 1705,
      "ged": 1706,
      "Ġapply": 1707,
      "cre": 1708,
      "iven": 1709,
      "Ġinf": 1710,
      "Ġenglish": 1711,
      "Ġsouth": 1712,
      "ods": 1713,
      "Ġhy": 1714,
      "itch": 1715,
      "Ġaust": 1716,
      "pper": 1717,
      "Ġbatter": 1718,
      "Ġfacebook": 1719,
      "Ġban": 1720,
      "aily": 1721,
      "Ġcountry": 1722,
      "Ġepisode": 1723,
      "ung": 1724,
      "Ġloss": 1725,
      "Ġport": 1726,
      "itional": 1727,
      "Ġoper": 1728,
      "Ġhere": 1729,
      "Ġresp": 1730,
      "ration": 1731,
      "Ġov": 1732,
      "Ġunit": 1733,
      "Ġyout": 1734,
      "Ġarr": 1735,
      "Ġhigher": 1736,
      "agn": 1737,
      "Ġq": 1738,
      "Ġking": 1739,
      "ination": 1740,
      "eds": 1741,
      "Ġoption": 1742,
      "Ġapproxim": 1743,
      "mber": 1744,
      "Ġpast": 1745,
      "omes": 1746,
      "atic": 1747,
      "ule": 1748,
      "Ġdaily": 1749,
      "dom": 1750,
      "Ġpublic": 1751,
      "und": 1752,
      "free": 1753,
      "Ġfinal": 1754,
      "cept": 1755,
      "ability": 1756,
      "eth": 1757,
      "aking": 1758,
      "Ġox": 1759,
      "Ġcontact": 1760,
      "Ġtrain": 1761,
      "arr": 1762,
      "Ġmole": 1763,
      "ato": 1764,
      "Ġvers": 1765,
      "Ġsum": 1766,
      "self": 1767,
      "Ġeither": 1768,
      "chn": 1769,
      "fort": 1770,
      "roid": 1771,
      "Ġchem": 1772,
      "Ġkid": 1773,
      "Ġphys": 1774,
      "Ġtable": 1775,
      "oll": 1776,
      "Ġgovern": 1777,
      "view": 1778,
      "Ġdele": 1779,
      "Ġsave": 1780,
      "ured": 1781,
      "sc": 1782,
      "Ġgreen": 1783,
      "att": 1784,
      "eter": 1785,
      "Ġprem": 1786,
      "ared": 1787,
      "Ġmass": 1788,
      "Ġregular": 1789,
      "Ġeu": 1790,
      "Ġallowed": 1791,
      "Ġbi": 1792,
      "by": 1793,
      "Ġchrist": 1794,
      "ology": 1795,
      "Ġfollowing": 1796,
      "Ġmid": 1797,
      "Ġformula": 1798,
      "99": 1799,
      "Ġexperience": 1800,
      "Ġfib": 1801,
      "Ġcitiz": 1802,
      "oking": 1803,
      "Ġcharacter": 1804,
      "'ve": 1805,
      "omach": 1806,
      "ster": 1807,
      "Ġmot": 1808,
      "uit": 1809,
      "oc": 1810,
      "Ġsyn": 1811,
      "Ġchicken": 1812,
      "Ġpersonal": 1813,
      "Ġearn": 1814,
      "Ġcustom": 1815,
      "Ġhaving": 1816,
      "ai": 1817,
      "Ġpartic": 1818,
      "Ġequals": 1819,
      "Ġfire": 1820,
      "Ġresults": 1821,
      "Ġengine": 1822,
      "Ġpoint": 1823,
      "Ġapproximately": 1824,
      "Ġhealthy": 1825,
      "Ġfit": 1826,
      "Ġprice": 1827,
      "ball": 1828,
      "ogle": 1829,
      "ails": 1830,
      "ential": 1831,
      "Ġsays": 1832,
      "Ġlook": 1833,
      "Ġexpect": 1834,
      ".\",": 1835,
      "Ġce": 1836,
      "Ġtick": 1837,
      "Ġbalance": 1838,
      "Ġmiss": 1839,
      "Ġpc": 1840,
      "Ġminim": 1841,
      "ache": 1842,
      "Ġrenew": 1843,
      "Ġident": 1844,
      "Ġcity": 1845,
      "actions": 1846,
      "top": 1847,
      "Ġcontin": 1848,
      "Ġrelated": 1849,
      "Ġnetwork": 1850,
      "Ġelectr": 1851,
      "Ġstore": 1852,
      "15": 1853,
      "Ġcorn": 1854,
      "Ġsod": 1855,
      "Ġdrinking": 1856,
      "Ġchanges": 1857,
      "Ġiss": 1858,
      "umb": 1859,
      "Ġip": 1860,
      "Ġmeasure": 1861,
      "ese": 1862,
      "Ġincrease": 1863,
      "rogen": 1864,
      "Ġhuman": 1865,
      "Ġmobile": 1866,
      "Ġactiv": 1867,
      "nel": 1868,
      "Ġ60": 1869,
      "Ġsit": 1870,
      "urance": 1871,
      "Ġreceive": 1872,
      "ches": 1873,
      "Ġet": 1874,
      "Ġaustral": 1875,
      "iger": 1876,
      "ification": 1877,
      "Ġdid": 1878,
      "Ġtaking": 1879,
      "ently": 1880,
      "Ġpen": 1881,
      "80": 1882,
      "ered": 1883,
      "Ġ+": 1884,
      "erv": 1885,
      "Ġbuild": 1886,
      "oo": 1887,
      "Ġvac": 1888,
      "Ġchildren": 1889,
      "Ġyoutube": 1890,
      "Ġfre": 1891,
      "Ġ2018": 1892,
      "ength": 1893,
      "Ġrese": 1894,
      "Ġquest": 1895,
      "cohol": 1896,
      "Ġmater": 1897,
      "step": 1898,
      "Ġrad": 1899,
      "Ġcir": 1900,
      "Ġsure": 1901,
      "Ġla": 1902,
      "Ġgas": 1903,
      "Ġaway": 1904,
      "Ġmaking": 1905,
      "Ġcat": 1906,
      "itis": 1907,
      "Ġstep": 1908,
      "Ġdiet": 1909,
      "Ġstomach": 1910,
      "aster": 1911,
      "Ġbill": 1912,
      "Ġitem": 1913,
      "iot": 1914,
      "Ġmusic": 1915,
      "Ġicon": 1916,
      "Ġart": 1917,
      "Ġborn": 1918,
      "Ġimportant": 1919,
      "Ġmakes": 1920,
      "Ġmicro": 1921,
      "Ġmail": 1922,
      "par": 1923,
      "itions": 1924,
      "Ġlot": 1925,
      "Ġtechn": 1926,
      "Ġge": 1927,
      "Ġnatural": 1928,
      "Ġgoogle": 1929,
      "aves": 1930,
      "Ġunivers": 1931,
      "Ġimp": 1932,
      "Ġfall": 1933,
      "soci": 1934,
      "Ġok": 1935,
      "Ġtreatment": 1936,
      "Ġpounds": 1937,
      "ests": 1938,
      "osed": 1939,
      "Ġ17": 1940,
      "lex": 1941,
      "Ġbow": 1942,
      "Ġbegin": 1943,
      "oles": 1944,
      "Ġclos": 1945,
      "ender": 1946,
      "Ġdom": 1947,
      "Ġje": 1948,
      "Ġplant": 1949,
      "Ġdoesn": 1950,
      "yes": 1951,
      "bl": 1952,
      "osp": 1953,
      "Ġtre": 1954,
      "Ġmg": 1955,
      "Ġvitamin": 1956,
      "Ġcanada": 1957,
      "Ġalcohol": 1958,
      "Ġcase": 1959,
      "que": 1960,
      "Ġclean": 1961,
      "ush": 1962,
      "ille": 1963,
      "nt": 1964,
      "tract": 1965,
      "Ġlocated": 1966,
      "Ġmov": 1967,
      "Ġcosts": 1968,
      "ivid": 1969,
      "hyd": 1970,
      "Ġsever": 1971,
      "Ġclear": 1972,
      "Ġstrong": 1973,
      "Ġcalculate": 1974,
      "sp": 1975,
      "Ġgiven": 1976,
      "Ġcats": 1977,
      "Ġblu": 1978,
      "ove": 1979,
      "Ġsoft": 1980,
      "Ġsomething": 1981,
      "Ġdocum": 1982,
      "Ġsex": 1983,
      "Ġlikely": 1984,
      "Ġbreak": 1985,
      "Ġdegree": 1986,
      "iday": 1987,
      "Ġreplace": 1988,
      "Ġpair": 1989,
      "Ġdel": 1990,
      "Ġcondition": 1991,
      "izz": 1992,
      "Ġstay": 1993,
      "18": 1994,
      "Ġedit": 1995,
      "kemon": 1996,
      "Ġassoci": 1997,
      "Ġperform": 1998,
      "cal": 1999,
      "aper": 2000,
      "Ġquick": 2001,
      "Ġdark": 2002,
      "Ġspecial": 2003,
      "Ġinsurance": 2004,
      "Ġreport": 2005,
      "Ġcertain": 2006,
      "my": 2007,
      "Ġsaid": 2008,
      "Ġtrad": 2009,
      "Ġcopy": 2010,
      "Ġenough": 2011,
      "40": 2012,
      "Ġcomes": 2013,
      "Ġdriver": 2014,
      "cript": 2015,
      "Ġtit": 2016,
      "Ġspr": 2017,
      "Ġtext": 2018,
      "Ġreason": 2019,
      "Ġlear": 2020,
      "Ġgovernment": 2021,
      "Ġmaterial": 2022,
      "Ġdead": 2023,
      "Ġstream": 2024,
      "Ġconst": 2025,
      "ization": 2026,
      "Ġmarried": 2027,
      "gal": 2028,
      "ided": 2029,
      "ift": 2030,
      "Ġsuper": 2031,
      "bon": 2032,
      "abet": 2033,
      "thing": 2034,
      "lor": 2035,
      "dr": 2036,
      "Ġlove": 2037,
      "Ġparts": 2038,
      "Ġquality": 2039,
      "like": 2040,
      "ta": 2041,
      "Ġthings": 2042,
      ".âĢĿ": 2043,
      "Ġactually": 2044,
      "Ġcold": 2045,
      "Ġstat": 2046,
      "Ġcountries": 2047,
      "crib": 2048,
      "Ġbag": 2049,
      "Ġmembers": 2050,
      "Ġphoto": 2051,
      "Ġabs": 2052,
      "Ġbottom": 2053,
      "aim": 2054,
      "Ġminimum": 2055,
      "Ġthir": 2056,
      "Ġspecific": 2057,
      "Ġbelow": 2058,
      "Ġtoday": 2059,
      "Ġlanguage": 2060,
      "Ġapplication": 2061,
      "ined": 2062,
      "Ġseveral": 2063,
      "Ġinstall": 2064,
      "Ġisn": 2065,
      "Ġnear": 2066,
      "Ġsometimes": 2067,
      "Ġoz": 2068,
      "atures": 2069,
      "jo": 2070,
      "Ġtables": 2071,
      "Ġlat": 2072,
      "Ġhim": 2073,
      "Ġgain": 2074,
      "Ġlength": 2075,
      "Ġdoctor": 2076,
      "ived": 2077,
      "Ġer": 2078,
      "Ġmiles": 2079,
      "ino": 2080,
      "Ġfriends": 2081,
      "Ġmedical": 2082,
      "Ġjan": 2083,
      "Ġmarket": 2084,
      "osis": 2085,
      "Ġsend": 2086,
      "Ġcauses": 2087,
      "Ġide": 2088,
      "500": 2089,
      "cially": 2090,
      "which": 2091,
      "Ġgre": 2092,
      "Ġ90": 2093,
      "Ġbacter": 2094,
      "Ġdeli": 2095,
      "Ġbreast": 2096,
      "Ġfluid": 2097,
      "Ġnever": 2098,
      "ufact": 2099,
      "over": 2100,
      "Ġcode": 2101,
      "ilar": 2102,
      "Ġfar": 2103,
      "Ġrelations": 2104,
      "Ġabove": 2105,
      "Ġlocal": 2106,
      "Ġobject": 2107,
      "Ġgir": 2108,
      "Ġvehicle": 2109,
      "cus": 2110,
      "Ġpict": 2111,
      "ware": 2112,
      "Ġcancer": 2113,
      "Ġworking": 2114,
      "Ġmanage": 2115,
      "Ġoriginal": 2116,
      "Ġ23": 2117,
      "Ġgoing": 2118,
      "Ġpokemon": 2119,
      "head": 2120,
      "Ġprim": 2121,
      "Ġsalt": 2122,
      "Ġfem": 2123,
      "Ġwide": 2124,
      "Ġdisney": 2125,
      "Ġcub": 2126,
      "Ġvalid": 2127,
      "Ġblue": 2128,
      "yle": 2129,
      "Ġgetting": 2130,
      "Ġindivid": 2131,
      "Ġbase": 2132,
      "Ġbrown": 2133,
      "Ġwhole": 2134,
      "Ġmix": 2135,
      "Ġpound": 2136,
      "Ġoffice": 2137,
      "ont": 2138,
      "aly": 2139,
      "Ġmanufact": 2140,
      "Ġfederal": 2141,
      "time": 2142,
      "poons": 2143,
      "Ġblocked": 2144,
      "Ġcurrently": 2145,
      "Ġegg": 2146,
      "Ġlink": 2147,
      "ling": 2148,
      "Ġcut": 2149,
      "Ġadv": 2150,
      "Ġeye": 2151,
      "Ġamaz": 2152,
      "Ġproblems": 2153,
      "Ġdevices": 2154,
      "Ġye": 2155,
      "mas": 2156,
      "Ġ80": 2157,
      "Ġtell": 2158,
      "ned": 2159,
      "Ġdone": 2160,
      "ler": 2161,
      "ury": 2162,
      "Ġut": 2163,
      "Ġpurch": 2164,
      "Ġfish": 2165,
      "Ġtry": 2166,
      "raw": 2167,
      "Ġeating": 2168,
      "hy": 2169,
      "etooth": 2170,
      "Ġwr": 2171,
      "Ġnorth": 2172,
      "ma": 2173,
      "100": 2174,
      "Ġactive": 2175,
      "for": 2176,
      "por": 2177,
      "Ġcam": 2178,
      "11": 2179,
      "Ġap": 2180,
      "Ġbleeding": 2181,
      "Ġsimilar": 2182,
      "Ġlater": 2183,
      "ember": 2184,
      "Ġshare": 2185,
      "urs": 2186,
      "Ġgold": 2187,
      "Ġland": 2188,
      "Ġcannot": 2189,
      "Ġservices": 2190,
      "ially": 2191,
      "Ġcommun": 2192,
      "ably": 2193,
      "mm": 2194,
      "Ġupd": 2195,
      "Ġdeb": 2196,
      "ieve": 2197,
      "Ġexcel": 2198,
      "Ġing": 2199,
      "ward": 2200,
      "Ġrepres": 2201,
      "Ġequival": 2202,
      "Ġbluetooth": 2203,
      "ausea": 2204,
      "Ġindia": 2205,
      "Ġpaid": 2206,
      "Ġfactor": 2207,
      "way": 2208,
      "Ġchannel": 2209,
      "ging": 2210,
      "ba": 2211,
      "Ġeasy": 2212,
      "Ġoptions": 2213,
      "ols": 2214,
      "Ġpresident": 2215,
      "Ġque": 2216,
      "Ġconvert": 2217,
      "vir": 2218,
      "Ġ22": 2219,
      "Ġmal": 2220,
      "Ġthing": 2221,
      "mer": 2222,
      "Ġcooked": 2223,
      "Ġcertific": 2224,
      "Ġearth": 2225,
      "unes": 2226,
      "Ġsimply": 2227,
      "19": 2228,
      "ley": 2229,
      "Ġeggs": 2230,
      "Ġinfl": 2231,
      "face": 2232,
      "loud": 2233,
      "Ġchemical": 2234,
      "Ġwhy": 2235,
      "Ġprevent": 2236,
      "oks": 2237,
      "lock": 2238,
      "ca": 2239,
      "Ġalong": 2240,
      "ien": 2241,
      "Ġfore": 2242,
      "ellow": 2243,
      "Ġpriv": 2244,
      "fr": 2245,
      "yn": 2246,
      "Ġespe": 2247,
      "Ġfee": 2248,
      "Ġra": 2249,
      "aces": 2250,
      "most": 2251,
      "Â®": 2252,
      "Ġliqu": 2253,
      "roll": 2254,
      "Ġbattery": 2255,
      "Ġdoll": 2256,
      "Ġconsum": 2257,
      "Ġdiabet": 2258,
      "ho": 2259,
      "Ġworks": 2260,
      "Ġfoods": 2261,
      "Ġcaused": 2262,
      "ux": 2263,
      "Ġtrue": 2264,
      "Ġsound": 2265,
      "ouble": 2266,
      "tes": 2267,
      "Ġpopular": 2268,
      "Ġess": 2269,
      "sa": 2270,
      "Ġcitizens": 2271,
      "Ġfeed": 2272,
      "Ġclaim": 2273,
      "Ġorigin": 2274,
      "Ġprom": 2275,
      "Ġeffective": 2276,
      "Ġicloud": 2277,
      "ief": 2278,
      "ables": 2279,
      "Ġstory": 2280,
      "Ġsmart": 2281,
      "Ġsens": 2282,
      "Ġoffer": 2283,
      "Ġwear": 2284,
      "val": 2285,
      "Ġeyes": 2286,
      "Ġwritten": 2287,
      "Ġlay": 2288,
      "Ġgar": 2289,
      "Ġdrop": 2290,
      "Ġanimals": 2291,
      "Ġpresent": 2292,
      "down": 2293,
      "ugs": 2294,
      "Ġdisplay": 2295,
      "Ġjob": 2296,
      "Ġveget": 2297,
      "Ġmuscle": 2298,
      "set": 2299,
      "bre": 2300,
      "atory": 2301,
      "Ġconfir": 2302,
      "Ġvisit": 2303,
      "Ġgall": 2304,
      "ny": 2305,
      "Ġbasic": 2306,
      "inc": 2307,
      "Ġeuro": 2308,
      "Ġmultiple": 2309,
      "Ġequivalent": 2310,
      "Ġdamage": 2311,
      "Ġreally": 2312,
      "Ġiron": 2313,
      "Ġantib": 2314,
      "Ġserving": 2315,
      "Ġairp": 2316,
      "Ġsource": 2317,
      "Ġcharge": 2318,
      "resh": 2319,
      "Ġprovide": 2320,
      "unch": 2321,
      "ze": 2322,
      "Ġheat": 2323,
      "Ġingred": 2324,
      "side": 2325,
      "Ġcases": 2326,
      "Ġmeth": 2327,
      "Ġbabies": 2328,
      "Ġimpro": 2329,
      "Ġyellow": 2330,
      "Ġsigns": 2331,
      "Ġyoun": 2332,
      "Ġcollect": 2333,
      "ension": 2334,
      "ero": 2335,
      "Ġml": 2336,
      "Ġinfections": 2337,
      "Ġrelationship": 2338,
      "apan": 2339,
      "Ġhist": 2340,
      "ances": 2341,
      "Ġaustralia": 2342,
      "erc": 2343,
      "Ġprogram": 2344,
      "Ġindic": 2345,
      "\",": 2346,
      "Ġespecially": 2347,
      "Ġter": 2348,
      "ĠÂ£": 2349,
      "Ġeight": 2350,
      "Ġpet": 2351,
      "ission": 2352,
      "Ġtour": 2353,
      "\".": 2354,
      "Ġ*": 2355,
      "Ġprotect": 2356,
      "Ġrunning": 2357,
      "Ġbed": 2358,
      "Ġisland": 2359,
      "Ġelectric": 2360,
      "Ġspeed": 2361,
      "ha": 2362,
      "ression": 2363,
      "char": 2364,
      "ager": 2365,
      "Ġ,": 2366,
      "ils": 2367,
      "ote": 2368,
      "Ġamazon": 2369,
      "Ġcreate": 2370,
      "Ġrecommended": 2371,
      "Ġwed": 2372,
      "akes": 2373,
      "use": 2374,
      "Ġexpl": 2375,
      "ounced": 2376,
      "Ġglass": 2377,
      "Ġemploye": 2378,
      "Ġbrit": 2379,
      "13": 2380,
      "Ġsubst": 2381,
      "Ġteas": 2382,
      "Ġweigh": 2383,
      "omy": 2384,
      "acks": 2385,
      "ffe": 2386,
      "enter": 2387,
      "Ġjuice": 2388,
      "Ġbit": 2389,
      "Ġitunes": 2390,
      "Ġaccept": 2391,
      "Ġsil": 2392,
      "Ġflow": 2393,
      "rict": 2394,
      "ana": 2395,
      "Ġfactors": 2396,
      "Ġphysical": 2397,
      "Ġvacc": 2398,
      "iforn": 2399,
      "year": 2400,
      "Ġwarm": 2401,
      "Ġkind": 2402,
      "Ġclose": 2403,
      "reg": 2404,
      "Ġprofess": 2405,
      "Ġmultiply": 2406,
      "Ġrelease": 2407,
      "66": 2408,
      "Ġult": 2409,
      "Ġcolle": 2410,
      "ape": 2411,
      "Ġusb": 2412,
      "uff": 2413,
      "Ġprob": 2414,
      "Ġrock": 2415,
      "Ġmouth": 2416,
      "ifornia": 2417,
      "aste": 2418,
      "Ġnoun": 2419,
      "Ġ21": 2420,
      "Ġrice": 2421,
      "pm": 2422,
      ",âĢĿ": 2423,
      "Ġpan": 2424,
      "Ġpare": 2425,
      "Ġuses": 2426,
      "Ġjanuary": 2427,
      "Ġdigest": 2428,
      "ene": 2429,
      "ister": 2430,
      "avor": 2431,
      "Ġneeded": 2432,
      "Ġvolume": 2433,
      "Ġcash": 2434,
      "Ġextra": 2435,
      "Ġpu": 2436,
      "Ġolder": 2437,
      "Ġbutter": 2438,
      "Ġregist": 2439,
      "Ġcoup": 2440,
      "bal": 2441,
      "uel": 2442,
      "Ġeduc": 2443,
      "Ġcover": 2444,
      "la": 2445,
      "cut": 2446,
      "Ġsent": 2447,
      "Ġwire": 2448,
      "Ġteam": 2449,
      "ller": 2450,
      "Ġden": 2451,
      "Ġversion": 2452,
      "Ġyeast": 2453,
      "Ġdeterm": 2454,
      "Ġatoms": 2455,
      "Ġcourse": 2456,
      "asts": 2457,
      "amins": 2458,
      "Ġlog": 2459,
      "car": 2460,
      "acy": 2461,
      "Ġemploy": 2462,
      "Ġstop": 2463,
      "Ġmaxim": 2464,
      "aches": 2465,
      "Ġfield": 2466,
      "agram": 2467,
      "Ġjapan": 2468,
      "Ġestim": 2469,
      "Ġwi": 2470,
      "Ġbeh": 2471,
      "Ġcards": 2472,
      "Ġinvest": 2473,
      "Ġsection": 2474,
      "ished": 2475,
      "astic": 2476,
      "Ġprime": 2477,
      "Ġreleased": 2478,
      "rect": 2479,
      "Ġgerm": 2480,
      "ka": 2481,
      "Ġdriving": 2482,
      "dd": 2483,
      "Ġtur": 2484,
      "Ġpill": 2485,
      "Ġdeath": 2486,
      "Ġwait": 2487,
      "Ġcertificate": 2488,
      "Ġplants": 2489,
      "Ġstudy": 2490,
      "Ġthird": 2491,
      "Ġairpods": 2492,
      "Ġpick": 2493,
      "ouch": 2494,
      "cles": 2495,
      "Ġask": 2496,
      "Ġlose": 2497,
      "Ġfolder": 2498,
      "Ġinside": 2499,
      "hest": 2500,
      "Ġrefr": 2501,
      "Ġdisc": 2502,
      "Ġtex": 2503,
      "Ġwebs": 2504,
      "Ġcream": 2505,
      "Ġswitch": 2506,
      "ensive": 2507,
      "Ġvary": 2508,
      "change": 2509,
      "Ġsche": 2510,
      "Ġbrother": 2511,
      "Ġsav": 2512,
      "Ġcalifornia": 2513,
      "Ġtaken": 2514,
      "Ġ26": 2515,
      "Ġrare": 2516,
      "Ġpark": 2517,
      "key": 2518,
      "ming": 2519,
      "22": 2520,
      "Ġwat": 2521,
      "Ġcand": 2522,
      "amps": 2523,
      "Ġtherefore": 2524,
      ",\"": 2525,
      "Ġperfect": 2526,
      "etic": 2527,
      "Ġproperty": 2528,
      "ision": 2529,
      "Ġcontent": 2530,
      "Ġincludes": 2531,
      "has": 2532,
      "ental": 2533,
      "wor": 2534,
      "Â°": 2535,
      "anger": 2536,
      "ians": 2537,
      "Ġvitamins": 2538,
      "Ġautom": 2539,
      "Ġleave": 2540,
      "Ġflo": 2541,
      "Ġresearch": 2542,
      "Ġchristmas": 2543,
      "aps": 2544,
      "Ġbrain": 2545,
      "Ġkidney": 2546,
      "Ġanywhere": 2547,
      "ffee": 2548,
      "ault": 2549,
      "Ġbreat": 2550,
      "Ġinterest": 2551,
      "Ġroom": 2552,
      "mi": 2553,
      "Ġtal": 2554,
      "Ġepisodes": 2555,
      "hea": 2556,
      "Ġexerc": 2557,
      "soft": 2558,
      "no": 2559,
      "Ġoct": 2560,
      "Ġcommonly": 2561,
      "Ġfever": 2562,
      "Ġamerica": 2563,
      "Ġtests": 2564,
      "affe": 2565,
      "Ġcable": 2566,
      "Ġever": 2567,
      "Ġang": 2568,
      "Ġneg": 2569,
      "Ġagainst": 2570,
      "Ġhar": 2571,
      "75": 2572,
      "Ġvi": 2573,
      "cription": 2574,
      "Ġothers": 2575,
      "ama": 2576,
      "Ġcoun": 2577,
      "ised": 2578,
      "pa": 2579,
      "33": 2580,
      "Ġded": 2581,
      "cher": 2582,
      "Ġslow": 2583,
      "Ġyork": 2584,
      "Ġcycle": 2585,
      "Ġcarbs": 2586,
      "Ġpurp": 2587,
      "Ġconditions": 2588,
      "Ġaud": 2589,
      "you": 2590,
      "Ġpoison": 2591,
      "Ġmount": 2592,
      "Ġandroid": 2593,
      "Ġcarry": 2594,
      "Ġhorm": 2595,
      "16": 2596,
      "ga": 2597,
      "Ġdiabetes": 2598,
      "vi": 2599,
      "Ġvegan": 2600,
      "Ġhelps": 2601,
      "Ġchrom": 2602,
      "Ġmc": 2603,
      "Ġelectrons": 2604,
      "Ġcoffee": 2605,
      "Ġreduce": 2606,
      "Ġ28": 2607,
      "Ġfiber": 2608,
      "Ġsweet": 2609,
      "raft": 2610,
      "200": 2611,
      "Ġspecies": 2612,
      "Ġspace": 2613,
      "omiting": 2614,
      "ued": 2615,
      "Ġrefriger": 2616,
      "Ġ[\"": 2617,
      "Ġdeleted": 2618,
      "ades": 2619,
      "Ġpract": 2620,
      "Ġmile": 2621,
      "Ġmeat": 2622,
      "ding": 2623,
      "Ġfriend": 2624,
      "ida": 2625,
      "Ġteeth": 2626,
      "Ġsimple": 2627,
      "Ġspot": 2628,
      "Ġfrequ": 2629,
      "Ġten": 2630,
      "Ġ45": 2631,
      "Ġvo": 2632,
      "24": 2633,
      "Ġplayers": 2634,
      "Ġhydrogen": 2635,
      "Ġfresh": 2636,
      "Ġlib": 2637,
      "Ġmedicine": 2638,
      "poon": 2639,
      "Ġpositive": 2640,
      "Ġstored": 2641,
      "Ġnames": 2642,
      "vious": 2643,
      "Ġwoman": 2644,
      "Ġwindow": 2645,
      "oxide": 2646,
      "aut": 2647,
      "Ġcarbon": 2648,
      "Ġpayment": 2649,
      "Ġoxy": 2650,
      ".)": 2651,
      "Ġrefer": 2652,
      "Ġplayer": 2653,
      "Ġinstagram": 2654,
      "Ġheav": 2655,
      "Ġpotato": 2656,
      "orning": 2657,
      "Ġinternational": 2658,
      "atible": 2659,
      "da": 2660,
      "Ġdefinition": 2661,
      "Ġinstr": 2662,
      "aries": 2663,
      "Ġmarch": 2664,
      "Ġbur": 2665,
      "Ġuniversity": 2666,
      "Ġmind": 2667,
      "Ġgod": 2668,
      "Ġsurface": 2669,
      "14": 2670,
      "Ġlocation": 2671,
      "Ġantibiot": 2672,
      "hor": 2673,
      "press": 2674,
      "vere": 2675,
      "ead": 2676,
      ".\"]": 2677,
      "nes": 2678,
      "Ġnecess": 2679,
      "Ġdrug": 2680,
      "ators": 2681,
      "Ġille": 2682,
      "ateg": 2683,
      "Ġcenter": 2684,
      "Ġstock": 2685,
      "Ġkg": 2686,
      "ml": 2687,
      "Ġneeds": 2688,
      "Ġrepresent": 2689,
      "ands": 2690,
      "Ġmas": 2691,
      "Ġimm": 2692,
      "Ġgam": 2693,
      "Ġgot": 2694,
      "Ġanimal": 2695,
      "put": 2696,
      "ural": 2697,
      "Ġmode": 2698,
      "Ġill": 2699,
      "Ġlimit": 2700,
      "Ġcaffe": 2701,
      "Ġmaximum": 2702,
      "Ġmat": 2703,
      "bc": 2704,
      "Ġvia": 2705,
      "will": 2706,
      "Ġadmin": 2707,
      "Ġice": 2708,
      "Ġ:": 2709,
      "Ġfort": 2710,
      "wards": 2711,
      "Ġoxygen": 2712,
      "Ġsoon": 2713,
      "cing": 2714,
      "Ġrule": 2715,
      "Ġwebsite": 2716,
      "ules": 2717,
      "Ġliver": 2718,
      "Ġopp": 2719,
      "Ġtele": 2720,
      "Ġroot": 2721,
      "board": 2722,
      "Ġnu": 2723,
      "Ġ199": 2724,
      "Ġillegal": 2725,
      "Ġdece": 2726,
      "ses": 2727,
      "Ġcubic": 2728,
      "order": 2729,
      "Ġmorning": 2730,
      "Ġrout": 2731,
      "Ġbacteria": 2732,
      "Ġapr": 2733,
      "Ġkill": 2734,
      "ost": 2735,
      "roat": 2736,
      "Ġmach": 2737,
      "Ġafric": 2738,
      "Ġseven": 2739,
      "Ġremain": 2740,
      "Ġexist": 2741,
      "atio": 2742,
      "Ġbon": 2743,
      "Ġtoxic": 2744,
      "Ġsubs": 2745,
      "Ġeurope": 2746,
      "Ġtaxes": 2747,
      "Ġbeans": 2748,
      "iny": 2749,
      "orr": 2750,
      "Ġhumans": 2751,
      "Ġshows": 2752,
      "Ġglo": 2753,
      "Ġlin": 2754,
      "aced": 2755,
      "Ġstick": 2756,
      "amed": 2757,
      "Ġple": 2758,
      "ipe": 2759,
      "Ġpaper": 2760,
      "Ġchromos": 2761,
      "Ġareas": 2762,
      "Ġfix": 2763,
      "Ġmessage": 2764,
      "Ġharm": 2765,
      "Ġjune": 2766,
      "ention": 2767,
      "Ġwood": 2768,
      "Ġsept": 2769,
      "viron": 2770,
      "lit": 2771,
      "Ġchina": 2772,
      "Ġipad": 2773,
      "Ġdro": 2774,
      "Ġeducation": 2775,
      "ych": 2776,
      "Ġalmost": 2777,
      "Ġavoid": 2778,
      "Ġinternet": 2779,
      "Ġnote": 2780,
      "Ġchamp": 2781,
      "Ġannounced": 2782,
      "Ġcamer": 2783,
      ")']": 2784,
      "arily": 2785,
      "Ġproduce": 2786,
      "Ġlap": 2787,
      "Ġofficial": 2788,
      "Ġze": 2789,
      "Ġcaffeine": 2790,
      "ening": 2791,
      "Ġpoly": 2792,
      "bit": 2793,
      "Ġurine": 2794,
      "Ġitems": 2795,
      "Ġfruit": 2796,
      "Ġstruct": 2797,
      "Ġapril": 2798,
      "Ġmer": 2799,
      "Ġdevelopment": 2800,
      "Ġtraining": 2801,
      "tone": 2802,
      "Ġaren": 2803,
      "ole": 2804,
      "Ġvine": 2805,
      "Ġsignature": 2806,
      "Ġbook": 2807,
      "Ġliving": 2808,
      "Ġsearch": 2809,
      "Ġpie": 2810,
      "Ġsold": 2811,
      "Ġpal": 2812,
      "Ġpicture": 2813,
      "Ġsick": 2814,
      "istics": 2815,
      "hydr": 2816,
      "70": 2817,
      "idge": 2818,
      "Ġingredients": 2819,
      "Ġsepar": 2820,
      "su": 2821,
      "Ġwashing": 2822,
      "ague": 2823,
      "Ġson": 2824,
      "Ġfilm": 2825,
      "Ġcollege": 2826,
      "Ġcompatible": 2827,
      "Ġinstead": 2828,
      "ctions": 2829,
      "proof": 2830,
      "hen": 2831,
      "Ġgrowth": 2832,
      "Ġinj": 2833,
      "iction": 2834,
      "Ġfac": 2835,
      "Ġanything": 2836,
      "Ġmanagement": 2837,
      "vered": 2838,
      "ties": 2839,
      "Ġetc": 2840,
      "Ġqueen": 2841,
      "Ġsug": 2842,
      "Ġvirus": 2843,
      "Ġ29": 2844,
      "Ġcorner": 2845,
      "Ġadded": 2846,
      "iding": 2847,
      "ums": 2848,
      "ully": 2849,
      "Ġhappens": 2850,
      "born": 2851,
      "Ġsuc": 2852,
      "Ġjoh": 2853,
      "Ġelig": 2854,
      "Ġfro": 2855,
      "dle": 2856,
      "ads": 2857,
      "inary": 2858,
      "Ġnove": 2859,
      "Ġamong": 2860,
      "Ġburned": 2861,
      "Ġsell": 2862,
      "ended": 2863,
      "gress": 2864,
      "Ġmagn": 2865,
      "Ġlabor": 2866,
      "Ġhd": 2867,
      "Ġdest": 2868,
      "Ġheight": 2869,
      "Ġrequirements": 2870,
      "comp": 2871,
      "Ġscore": 2872,
      "Ġrecover": 2873,
      "Ġmanager": 2874,
      "rees": 2875,
      "Ġdial": 2876,
      "enses": 2877,
      "Ġindividual": 2878,
      "ograp": 2879,
      "Ġdrugs": 2880,
      "Ġfly": 2881,
      "Ġentire": 2882,
      "Ġnovember": 2883,
      "Ġbowl": 2884,
      "Ġfemale": 2885,
      "Ġlarger": 2886,
      "reme": 2887,
      "Ġwall": 2888,
      "Ġdouble": 2889,
      "Ġfraction": 2890,
      "ronic": 2891,
      "Ġminute": 2892,
      "ilt": 2893,
      "Ġton": 2894,
      "Ġringtone": 2895,
      "Ġtiss": 2896,
      "Ġessential": 2897,
      "reng": 2898,
      "Ġfront": 2899,
      "Ġupper": 2900,
      "Ġwhether": 2901,
      "Ġwash": 2902,
      "Ġthroat": 2903,
      "mission": 2904,
      "Ġliquid": 2905,
      "Ġfig": 2906,
      "icy": 2907,
      "Ġmovie": 2908,
      "Ġterms": 2909,
      "Ġsodium": 2910,
      "bi": 2911,
      "Ġsubject": 2912,
      "Ġâ": 2913,
      "Ġdecember": 2914,
      "aph": 2915,
      "Ġfees": 2916,
      "Ġkit": 2917,
      "izes": 2918,
      "Ġ|": 2919,
      "Ġhistory": 2920,
      "Ġfriday": 2921,
      "Ġforce": 2922,
      "aring": 2923,
      "Ġbring": 2924,
      "vironment": 2925,
      "Ġbat": 2926,
      "urt": 2927,
      "Ġ36": 2928,
      "Ġupdate": 2929,
      "Ġassociated": 2930,
      "rel": 2931,
      "Ġuser": 2932,
      "Ġshoes": 2933,
      "Ġmicrosoft": 2934,
      "Ġfur": 2935,
      "Ġvinegar": 2936,
      "Ġacross": 2937,
      "Ġnegative": 2938,
      "Ġtouch": 2939,
      "Ġmag": 2940,
      "anch": 2941,
      "Ġ500": 2942,
      "pping": 2943,
      "ername": 2944,
      "Ġusa": 2945,
      "ober": 2946,
      "Ġfine": 2947,
      "Ġaccounts": 2948,
      "Ġdanger": 2949,
      "Ġgram": 2950,
      "Ġadult": 2951,
      "Ġshot": 2952,
      "oma": 2953,
      "omic": 2954,
      "Ġsatur": 2955,
      "zen": 2956,
      "23": 2957,
      "Ġocc": 2958,
      "Ġcm": 2959,
      "light": 2960,
      "Ġjuly": 2961,
      "ibut": 2962,
      "45": 2963,
      "Ġsaf": 2964,
      "Ġindian": 2965,
      "Ġcoming": 2966,
      "Ġadminist": 2967,
      "Ġcrim": 2968,
      "Ġvomiting": 2969,
      "ena": 2970,
      "Ġmm": 2971,
      "Ġquar": 2972,
      "Ġinvol": 2973,
      "Ġraw": 2974,
      "Ġregion": 2975,
      "Ġprovides": 2976,
      "Ġcapital": 2977,
      "]',": 2978,
      "Ġweak": 2979,
      "ulu": 2980,
      "tic": 2981,
      "Ġhit": 2982,
      "Ġ32": 2983,
      "arrhea": 2984,
      "Ġformat": 2985,
      "Ġswim": 2986,
      "augh": 2987,
      "Ġcentral": 2988,
      "Ġtree": 2989,
      "inations": 2990,
      "hern": 2991,
      "Ġexercise": 2992,
      "Ġlate": 2993,
      "Ġparticular": 2994,
      "Ġalb": 2995,
      "Ġfert": 2996,
      "Ġwithd": 2997,
      "Ġmale": 2998,
      "duct": 2999,
      "Ġdivide": 3000,
      "Ġleague": 3001,
      "back": 3002,
      "Ġvideos": 3003,
      "Ġcourt": 3004,
      "onal": 3005,
      "Ġbackup": 3006,
      "Ġ150": 3007,
      "Ġpa": 3008,
      "Ġwid": 3009,
      "aged": 3010,
      "Ġrather": 3011,
      "Ġ27": 3012,
      "Ġoctober": 3013,
      "Ġ70": 3014,
      "Ġconsider": 3015,
      "here": 3016,
      "Ġtom": 3017,
      "Ġtexas": 3018,
      "ique": 3019,
      "Ġmotor": 3020,
      "Ġhor": 3021,
      "Ġaddition": 3022,
      "90": 3023,
      "Ġdoing": 3024,
      "Ġtar": 3025,
      "Ġbath": 3026,
      "Ġdesigned": 3027,
      "Ġgirl": 3028,
      "Ġliter": 3029,
      "Ġspread": 3030,
      "idence": 3031,
      "aff": 3032,
      "Ġfeatures": 3033,
      "Ġmonday": 3034,
      "Ġprofessional": 3035,
      "Ġtablespoons": 3036,
      "Ġremove": 3037,
      "Ġsalary": 3038,
      "Ġground": 3039,
      "clus": 3040,
      "Ġstreng": 3041,
      "Ġstatus": 3042,
      "ery": 3043,
      "Ġlearn": 3044,
      "Ġstores": 3045,
      "Ġcars": 3046,
      "cast": 3047,
      "Ġoverall": 3048,
      "Ġadditional": 3049,
      "cular": 3050,
      "Ġallows": 3051,
      "Ġ1000": 3052,
      "orie": 3053,
      "Ġmodel": 3054,
      "Ġeasily": 3055,
      "Ġmis": 3056,
      "Ġboy": 3057,
      "ready": 3058,
      "ground": 3059,
      "Ġsunday": 3060,
      "Ġmember": 3061,
      "Ġthink": 3062,
      "Ġwest": 3063,
      "bol": 3064,
      "Ġmedium": 3065,
      "uction": 3066,
      "Ġcontroller": 3067,
      "Ġexpress": 3068,
      "Ġrough": 3069,
      "Ġthin": 3070,
      "Ġengineer": 3071,
      "Ġjobs": 3072,
      "Ġdetails": 3073,
      "Ġnotice": 3074,
      "ius": 3075,
      "Ġball": 3076,
      "Ġpatients": 3077,
      "Ġounce": 3078,
      "Ġdegrees": 3079,
      "Ġpremie": 3080,
      "Ġevent": 3081,
      "Ġmeet": 3082,
      "Ġimpl": 3083,
      "ancial": 3084,
      "Ġsnow": 3085,
      "Ġintro": 3086,
      "ficult": 3087,
      "Ġovulation": 3088,
      "Ġsales": 3089,
      "Ġstarting": 3090,
      "nam": 3091,
      "emplo": 3092,
      "Ġdepart": 3093,
      "17": 3094,
      "Ġbritish": 3095,
      "Ġbud": 3096,
      "endent": 3097,
      "Ġusers": 3098,
      "ror": 3099,
      "ilities": 3100,
      "Ġspeak": 3101,
      "stand": 3102,
      "Ġsevere": 3103,
      "istant": 3104,
      "Ġflor": 3105,
      "Ġwireless": 3106,
      "35": 3107,
      "Ġecon": 3108,
      "Ġappears": 3109,
      "Ġstudents": 3110,
      "Ġnav": 3111,
      "Ġobtain": 3112,
      "Ġpink": 3113,
      "Ġoutside": 3114,
      "pped": 3115,
      "Ġaug": 3116,
      "charge": 3117,
      "Ġnausea": 3118,
      "ifi": 3119,
      "rench": 3120,
      "Ġnutr": 3121,
      "Ġ120": 3122,
      "Ġexact": 3123,
      "Ġchromosomes": 3124,
      "cium": 3125,
      "ring": 3126,
      "hib": 3127,
      "Ġnormally": 3128,
      "tty": 3129,
      "Ġleaves": 3130,
      "Ġdescrib": 3131,
      "igr": 3132,
      "Ġcompletely": 3133,
      "Ġimprove": 3134,
      "Ġfully": 3135,
      "Ġsky": 3136,
      "Ġdocument": 3137,
      "Ġsand": 3138,
      "Ġwalk": 3139,
      "Ġweb": 3140,
      "Ġ)": 3141,
      "add": 3142,
      "Ġadults": 3143,
      "Ġrequires": 3144,
      "Ġprobably": 3145,
      "Ġmel": 3146,
      "Ġdistance": 3147,
      "medi": 3148,
      "right": 3149,
      "Ġmaterials": 3150,
      "imal": 3151,
      "Ġdirectly": 3152,
      "Ġcriminal": 3153,
      "craft": 3154,
      "Ġsnap": 3155,
      "Ġunlike": 3156,
      "Ġclosed": 3157,
      "Ġdrag": 3158,
      "Ġlaptop": 3159,
      "Ġwild": 3160,
      "Ġself": 3161,
      "Ġwithdraw": 3162,
      "Ġdie": 3163,
      "tar": 3164,
      "Ġcouple": 3165,
      "Ġren": 3166,
      "Ġbone": 3167,
      "itor": 3168,
      "Ġinit": 3169,
      "mp": 3170,
      "Ġyet": 3171,
      "Ġserious": 3172,
      "Ġquickly": 3173,
      "employ": 3174,
      "Ġconce": 3175,
      "Ġca": 3176,
      "aled": 3177,
      "Ġscr": 3178,
      "Ġseeds": 3179,
      "Ġalready": 3180,
      "Ġ31": 3181,
      "phones": 3182,
      "Ġproblem": 3183,
      "Ġelements": 3184,
      "Ġtwice": 3185,
      "Ġsen": 3186,
      "Ġdesp": 3187,
      "bruary": 3188,
      "Ġdeduct": 3189,
      "Ġcompet": 3190,
      "Ġsmaller": 3191,
      "Ġprivate": 3192,
      "Ġsco": 3193,
      "Ġhun": 3194,
      "Ġschedu": 3195,
      "Ġsmo": 3196,
      "Ġlost": 3197,
      "Ġmild": 3198,
      ".,": 3199,
      "Ġtea": 3200,
      "Ġnutri": 3201,
      "Ġcorrect": 3202,
      "choose": 3203,
      "Ġunless": 3204,
      "Ġtitle": 3205,
      "uk": 3206,
      "Ġnews": 3207,
      "Ġslight": 3208,
      "Ġ35": 3209,
      "uss": 3210,
      "Ġmenstr": 3211,
      "pat": 3212,
      "ising": 3213,
      "bohydr": 3214,
      "Ġoffers": 3215,
      "Ġthroughout": 3216,
      "di": 3217,
      "ologist": 3218,
      "Ġeligible": 3219,
      "Ġsong": 3220,
      "Ġfif": 3221,
      "Ġdim": 3222,
      "Ġrequest": 3223,
      "Ġhulu": 3224,
      "airy": 3225,
      "Ġitself": 3226,
      "Ġstreaming": 3227,
      "Ġhosp": 3228,
      "Ġjud": 3229,
      "off": 3230,
      "Ġdiam": 3231,
      "Ġvag": 3232,
      "ulf": 3233,
      "Ġannual": 3234,
      "Ġdepends": 3235,
      "Ġcreat": 3236,
      "Ġ\",": 3237,
      "Ġbul": 3238,
      "care": 3239,
      "Ġyoung": 3240,
      "Ġpy": 3241,
      "Ġmessages": 3242,
      "Ġmatter": 3243,
      "Ġauthor": 3244,
      "Ġpurchase": 3245,
      "ises": 3246,
      "Ġperiods": 3247,
      "igue": 3248,
      "Ġprimary": 3249,
      "Ġproduced": 3250,
      "Ġideal": 3251,
      "lam": 3252,
      "Ġkm": 3253,
      "Ġproduction": 3254,
      "Ġdetect": 3255,
      "Ġcool": 3256,
      "Ġorange": 3257,
      "ogn": 3258,
      "Ġquestion": 3259,
      "ites": 3260,
      "cel": 3261,
      "verse": 3262,
      "Ġmort": 3263,
      "Ġusername": 3264,
      "Ġpermit": 3265,
      "Ġevol": 3266,
      "Ġhighest": 3267,
      "Ġincreased": 3268,
      "Ġstor": 3269,
      "Ġ2017": 3270,
      "Ġcateg": 3271,
      "Ġdeep": 3272,
      "Ġ--": 3273,
      "cont": 3274,
      "Ġmaintain": 3275,
      "Ġfootball": 3276,
      "Ġactivity": 3277,
      "Ġseptember": 3278,
      "ops": 3279,
      "based": 3280,
      "Ġsurger": 3281,
      "Ġpsych": 3282,
      "wood": 3283,
      "erve": 3284,
      "Ġstyle": 3285,
      "Ġmother": 3286,
      "Ġsuccess": 3287,
      "Ġcarbohydr": 3288,
      "Ġflorida": 3289,
      "Ġcross": 3290,
      "Ġrom": 3291,
      "Ġpupp": 3292,
      "ication": 3293,
      "Ġdocuments": 3294,
      "Ġimage": 3295,
      "Ġenvironment": 3296,
      "Ġcontinue": 3297,
      "iles": 3298,
      "Ġflight": 3299,
      "type": 3300,
      "mary": 3301,
      "Ġreview": 3302,
      "Ġdelivery": 3303,
      "Ġdangerous": 3304,
      "Ġnucle": 3305,
      "Ġpin": 3306,
      "Ġtend": 3307,
      "Ġdip": 3308,
      "Ġshown": 3309,
      "Ġmax": 3310,
      "cks": 3311,
      "izon": 3312,
      "Ġfebruary": 3313,
      "Ġcast": 3314,
      "ava": 3315,
      "Ġreach": 3316,
      "Ġatm": 3317,
      "cules": 3318,
      "Ġdivided": 3319,
      "Ġpred": 3320,
      "Ġdistr": 3321,
      "Ġchoice": 3322,
      "Ġpets": 3323,
      "Ġconsist": 3324,
      "Ġdollars": 3325,
      "Ġrefers": 3326,
      "Ġfeeling": 3327,
      "rup": 3328,
      "anced": 3329,
      "Ġmethod": 3330,
      "Ġdespite": 3331,
      "unk": 3332,
      "under": 3333,
      "Ġlargest": 3334,
      "Ġmuscles": 3335,
      "Ġcommand": 3336,
      "21": 3337,
      "inger": 3338,
      "Ġbillion": 3339,
      "Ġapps": 3340,
      "Ġbroad": 3341,
      "Ġviews": 3342,
      "Ġtypical": 3343,
      "Ġrespons": 3344,
      "Ġchampions": 3345,
      "ibility": 3346,
      "Ġscre": 3347,
      "Ġproperties": 3348,
      "Ġvirgin": 3349,
      "Ġsurv": 3350,
      "Ġsurgery": 3351,
      "zy": 3352,
      "Ġpills": 3353,
      "term": 3354,
      "ners": 3355,
      "ference": 3356,
      "anut": 3357,
      "sel": 3358,
      "Ġaltern": 3359,
      "Ġamounts": 3360,
      "ulate": 3361,
      "Ġcalcium": 3362,
      "Ġdre": 3363,
      "Ġdepos": 3364,
      "Ġrich": 3365,
      "Ġparen": 3366,
      "Ġscient": 3367,
      "erals": 3368,
      "Ġliters": 3369,
      "Ġmatt": 3370,
      "Ġthick": 3371,
      "Ġirrit": 3372,
      "amsung": 3373,
      "adem": 3374,
      "Ġboard": 3375,
      "Ġsounds": 3376,
      "ched": 3377,
      "Ġexe": 3378,
      "Ġlimited": 3379,
      "Ġios": 3380,
      "Ġcough": 3381,
      "Ġcreated": 3382,
      "Ġmexic": 3383,
      "Ġprevious": 3384,
      "Ġoccurs": 3385,
      "ff": 3386,
      "Ġround": 3387,
      "Ġdefined": 3388,
      "met": 3389,
      "Ġcovered": 3390,
      "Ġwine": 3391,
      "Ġder": 3392,
      "Ġburns": 3393,
      "Ġseen": 3394,
      "Ġsystems": 3395,
      "Ġperman": 3396,
      ",',": 3397,
      "Ġcounty": 3398,
      "Ġletter": 3399,
      "Ġod": 3400,
      "Ġsq": 3401,
      "Ġaff": 3402,
      "Ġdut": 3403,
      "Ġroll": 3404,
      "Ġchocol": 3405,
      "Ġfail": 3406,
      "Ġplastic": 3407,
      "tt": 3408,
      "Ġcomfort": 3409,
      "ifications": 3410,
      "Ġdifficult": 3411,
      "Ġzero": 3412,
      "Ġexcept": 3413,
      "Ġstars": 3414,
      "Ġscience": 3415,
      "Ġpeanut": 3416,
      "Ġskills": 3417,
      "Ġtickets": 3418,
      "Ġax": 3419,
      "Ġforms": 3420,
      "Ġib": 3421,
      "lim": 3422,
      "Ġvan": 3423,
      "Ġantibiotics": 3424,
      "ÃĹ": 3425,
      "Ġbaking": 3426,
      "Ġdna": 3427,
      "ae": 3428,
      "anges": 3429,
      "eve": 3430,
      "your": 3431,
      "Ġreve": 3432,
      "oph": 3433,
      "Ġcheese": 3434,
      "asing": 3435,
      "Ġroad": 3436,
      "Ġstudies": 3437,
      "Ġlooking": 3438,
      "Ġreplacement": 3439,
      "Ġstatement": 3440,
      "Ġintake": 3441,
      "cm": 3442,
      "cs": 3443,
      "iled": 3444,
      "fi": 3445,
      "ike": 3446,
      "Ġmolecules": 3447,
      "29": 3448,
      "vision": 3449,
      "Ġquestions": 3450,
      "Ġsoda": 3451,
      "Ġii": 3452,
      "Ġmodern": 3453,
      "Ġlos": 3454,
      "Ġgoes": 3455,
      "Ġsamsung": 3456,
      "Ġcro": 3457,
      "Ġcompan": 3458,
      "Ġrecogn": 3459,
      "Ġfinancial": 3460,
      "Ġserver": 3461,
      "Ġdecre": 3462,
      "Ġdish": 3463,
      "Ġaccur": 3464,
      "Ġbible": 3465,
      "joy": 3466,
      "Ġindep": 3467,
      "Ġfunctions": 3468,
      "Ġemployees": 3469,
      "Ġtherap": 3470,
      "Ġattack": 3471,
      "Ġsite": 3472,
      "Ġmedia": 3473,
      "iac": 3474,
      "Ġmiddle": 3475,
      "rs": 3476,
      "Ġexcess": 3477,
      "Ġjack": 3478,
      "endo": 3479,
      "Ġsignific": 3480,
      "Ġmedication": 3481,
      "see": 3482,
      "ios": 3483,
      "Ġpotatoes": 3484,
      "terol": 3485,
      "Ġwhereas": 3486,
      "Ġpretty": 3487,
      "Ġrecords": 3488,
      "imate": 3489,
      "Ġanti": 3490,
      "ivity": 3491,
      "Ġspots": 3492,
      "Ġstress": 3493,
      "800": 3494,
      "Ġgets": 3495,
      "ened": 3496,
      "Ġcalls": 3497,
      "Ġdur": 3498,
      "enty": 3499,
      "olic": 3500,
      "Ġallerg": 3501,
      "Ġrepair": 3502,
      "pal": 3503,
      "Ġdefic": 3504,
      "Ġtim": 3505,
      "ob": 3506,
      "Ġdat": 3507,
      "otes": 3508,
      "ensions": 3509,
      "Ġcalorie": 3510,
      "aby": 3511,
      "iency": 3512,
      "Ġstrength": 3513,
      "olesterol": 3514,
      "Ġbigger": 3515,
      "Ġfaster": 3516,
      "ales": 3517,
      "Ġadj": 3518,
      "Ġaction": 3519,
      "Ġimmedi": 3520,
      "Ġprep": 3521,
      "vert": 3522,
      "Ġitch": 3523,
      "Ġpig": 3524,
      "Ġdoor": 3525,
      "Ġdraw": 3526,
      "Ġrates": 3527,
      "Ġsports": 3528,
      "Ġparty": 3529,
      "Ġphil": 3530,
      "assium": 3531,
      "rary": 3532,
      "Ġticket": 3533,
      "Ġdefault": 3534,
      "Ġsteps": 3535,
      "Ġchocolate": 3536,
      "Ġbeach": 3537,
      "Ġsus": 3538,
      "Ġwidth": 3539,
      "employment": 3540,
      "Ġlicence": 3541,
      "Ġvariety": 3542,
      "Ġbones": 3543,
      "Ġplayed": 3544,
      "Ġmich": 3545,
      "Ġcholesterol": 3546,
      "Ġoh": 3547,
      "adu": 3548,
      "mat": 3549,
      "'d": 3550,
      "Ġmedications": 3551,
      "Ġ198": 3552,
      "ilit": 3553,
      "Ġhospital": 3554,
      "Ġgives": 3555,
      "Ġmetal": 3556,
      "Ġposition": 3557,
      "Ġband": 3558,
      "Ġflour": 3559,
      "Ġmenstrual": 3560,
      "gb": 3561,
      "ively": 3562,
      "Ġgreatest": 3563,
      "oups": 3564,
      "Ġdv": 3565,
      "uits": 3566,
      "lied": 3567,
      "Ġrub": 3568,
      "Ġpub": 3569,
      "Ġaugust": 3570,
      "Ġven": 3571,
      "ounce": 3572,
      "ya": 3573,
      "Ġnine": 3574,
      "Ġcharacteristics": 3575,
      "ached": 3576,
      "acher": 3577,
      "Ġclub": 3578,
      "Ġnose": 3579,
      "Ġbottle": 3580,
      "Ġdiarrhea": 3581,
      "Ġremoved": 3582,
      "Ġstorage": 3583,
      "Ġcider": 3584,
      "Ġproject": 3585,
      "Ġkingdom": 3586,
      "Ġeth": 3587,
      "Ġcontract": 3588,
      "Ġretire": 3589,
      "Ġslightly": 3590,
      "Ġaz": 3591,
      "Ġofficer": 3592,
      "Ġbuilt": 3593,
      "Ġcab": 3594,
      "ained": 3595,
      "hold": 3596,
      "Ġfrench": 3597,
      "pound": 3598,
      "Ġabdom": 3599,
      "Ġverb": 3600,
      "log": 3601,
      "Ġanaly": 3602,
      "Ġseem": 3603,
      "Ġhost": 3604,
      "Ġincluded": 3605,
      "hs": 3606,
      "ij": 3607,
      "Ġgun": 3608,
      "Ġstage": 3609,
      "Ġtrack": 3610,
      "Ġprior": 3611,
      "mg": 3612,
      "Ġloan": 3613,
      "Ġminerals": 3614,
      "night": 3615,
      "Ġacadem": 3616,
      "Ġability": 3617,
      "Ġlif": 3618,
      "Ġdeal": 3619,
      "Ġflat": 3620,
      "net": 3621,
      "Ġexpensive": 3622,
      "pre": 3623,
      "aks": 3624,
      "gage": 3625,
      "Ġsoftware": 3626,
      "Ġach": 3627,
      "Ġpump": 3628,
      "connect": 3629,
      "Ġsafety": 3630,
      "Ġcamera": 3631,
      "hg": 3632,
      "ymph": 3633,
      "ili": 3634,
      "Ġwinter": 3635,
      "Ġenc": 3636,
      "Ġpopulation": 3637,
      "Ġmemory": 3638,
      "arian": 3639,
      "Ġnic": 3640,
      "Ġgal": 3641,
      "Ġtaxable": 3642,
      "intendo": 3643,
      "Ġcompon": 3644,
      "Ġcamp": 3645,
      "Ġmarriage": 3646,
      "Ġroughly": 3647,
      "rol": 3648,
      "yal": 3649,
      "Ġconfirmed": 3650,
      "gg": 3651,
      "Ġthus": 3652,
      "Ġsplit": 3653,
      "fat": 3654,
      "Ġentry": 3655,
      "Ġwashington": 3656,
      "Ġkiss": 3657,
      "Ġdrivers": 3658,
      "Ġiv": 3659,
      "Ġplease": 3660,
      "Ġfa": 3661,
      "Ġpotassium": 3662,
      "Ġdelete": 3663,
      "Ġinstruct": 3664,
      "Ġwedding": 3665,
      "Ġnamed": 3666,
      "Ġchest": 3667,
      "Ġsummary": 3668,
      "Ġrib": 3669,
      "Ġplate": 3670,
      "Ġkilog": 3671,
      "Ġtall": 3672,
      "Ġnintendo": 3673,
      "Ġunlock": 3674,
      "Ġnecessary": 3675,
      "ucks": 3676,
      "atives": 3677,
      "Ġmovies": 3678,
      "Ġapproved": 3679,
      "Ġexamples": 3680,
      "umps": 3681,
      "Ġextreme": 3682,
      "%.": 3683,
      "va": 3684,
      "Ġtools": 3685,
      "ker": 3686,
      "Ġlines": 3687,
      "Ġunits": 3688,
      "Ġlock": 3689,
      "Ġtaste": 3690,
      "Ġindust": 3691,
      "Ġabsor": 3692,
      "Ġsolid": 3693,
      "Ġfans": 3694,
      "atively": 3695,
      "Ġtwins": 3696,
      "Ġsea": 3697,
      "Ġplat": 3698,
      "mb": 3699,
      "berry": 3700,
      "Ġsymbol": 3701,
      "Ġintrodu": 3702,
      "uce": 3703,
      "bar": 3704,
      "Ġwalking": 3705,
      "Ġsolution": 3706,
      "cin": 3707,
      "Ġtissue": 3708,
      "pot": 3709,
      "32": 3710,
      "Ġdischarge": 3711,
      "Ġelement": 3712,
      "Ġpayments": 3713,
      "Ġsat": 3714,
      "aging": 3715,
      "Ġbenefit": 3716,
      "ica": 3717,
      "Ġenjoy": 3718,
      "Ġrob": 3719,
      "zer": 3720,
      "Ġunemployment": 3721,
      "Ġuber": 3722,
      "Ġvarious": 3723,
      "Ġmine": 3724,
      "Ġdu": 3725,
      "Ġtag": 3726,
      "Ġprint": 3727,
      "Ġ75": 3728,
      "itary": 3729,
      "omb": 3730,
      "ancing": 3731,
      "Ġjohn": 3732,
      "Ġbrows": 3733,
      "Ġmanufacture": 3734,
      "Ġrain": 3735,
      "Ġlemon": 3736,
      "Ġstra": 3737,
      "Ġconnected": 3738,
      "Ġmattress": 3739,
      "Ġparents": 3740,
      "Ġcounter": 3741,
      "Ġcompared": 3742,
      "row": 3743,
      "atically": 3744,
      "Ġvaries": 3745,
      "ott": 3746,
      "Ġreported": 3747,
      "Ġproof": 3748,
      "Ġequation": 3749,
      "Ġnutrients": 3750,
      "77": 3751,
      "Ġtub": 3752,
      "Ġny": 3753,
      "Ġswimming": 3754,
      "Ġcame": 3755,
      "mark": 3756,
      "Ġpolice": 3757,
      "iff": 3758,
      "Ġhighly": 3759,
      "Ġcult": 3760,
      "Ġtow": 3761,
      "Ġyourself": 3762,
      "Ġ360": 3763,
      "Ġmeter": 3764,
      "ban": 3765,
      "Ġlatin": 3766,
      "ude": 3767,
      "Ġheavy": 3768,
      "Ġlymph": 3769,
      "Ġsupple": 3770,
      "Ġrole": 3771,
      "Ġdesk": 3772,
      "ement": 3773,
      "xi": 3774,
      "Ġinfo": 3775,
      "Ġeast": 3776,
      "Ġbeaut": 3777,
      "Ġflav": 3778,
      "Ġinflamm": 3779,
      "Ġlaws": 3780,
      "Ġcanadian": 3781,
      "ensity": 3782,
      "Ġswelling": 3783,
      "Ġbackground": 3784,
      "Ġmachine": 3785,
      "Ġsecre": 3786,
      "Ġbeg": 3787,
      "Ġairport": 3788,
      "Ġpowder": 3789,
      "mic": 3790,
      "):": 3791,
      "iest": 3792,
      "Ġmoist": 3793,
      "ste": 3794,
      "Ġyah": 3795,
      "nection": 3796,
      "Ġgross": 3797,
      "Ġange": 3798,
      "Ġsignificant": 3799,
      "aur": 3800,
      "inter": 3801,
      "ought": 3802,
      "kn": 3803,
      "pass": 3804,
      "Ġways": 3805,
      "Ġketo": 3806,
      "otic": 3807,
      "Ġtrees": 3808,
      "lished": 3809,
      "Ġion": 3810,
      "Ġperoxide": 3811,
      "look": 3812,
      "Ġdating": 3813,
      "Ġquant": 3814,
      "Ġengland": 3815,
      "from": 3816,
      "Ġgeor": 3817,
      "Ġol": 3818,
      "Ġfut": 3819,
      "Ġ99": 3820,
      "Ġdairy": 3821,
      "Ġholiday": 3822,
      "Ġtraditional": 3823,
      "chat": 3824,
      "Ġstands": 3825,
      "Ġissues": 3826,
      "Ġfill": 3827,
      "Ġacids": 3828,
      "hour": 3829,
      "Ġgift": 3830,
      "Ġsuggest": 3831,
      "Ġproced": 3832,
      "yroid": 3833,
      "Ġwifi": 3834,
      "pes": 3835,
      "ondon": 3836,
      "nite": 3837,
      "Ġdem": 3838,
      "Ġss": 3839,
      "ee": 3840,
      "aving": 3841,
      "fo": 3842,
      "Ġconnection": 3843,
      "Ġstarts": 3844,
      "Ġfurther": 3845,
      "28": 3846,
      "Ġnation": 3847,
      "Ġfuel": 3848,
      "fc": 3849,
      "Ġtons": 3850,
      "55": 3851,
      "Ġtown": 3852,
      "ficient": 3853,
      "Ġafrica": 3854,
      "Ġnaturally": 3855,
      "Ġupon": 3856,
      "Ġhyper": 3857,
      "Ġcompanies": 3858,
      "Ġarm": 3859,
      "Ġjoint": 3860,
      "Ġec": 3861,
      "Ġdepartment": 3862,
      "Ġconsists": 3863,
      "works": 3864,
      "ky": 3865,
      "Ġvalues": 3866,
      "Ġvoice": 3867,
      "Ġpoisonous": 3868,
      "lc": 3869,
      "Ġpremium": 3870,
      "ying": 3871,
      "room": 3872,
      "Ġcombination": 3873,
      "bor": 3874,
      "Ġexam": 3875,
      "Ġrestore": 3876,
      "Ġsword": 3877,
      "Ġ2016": 3878,
      "Ġperformance": 3879,
      "sol": 3880,
      "Ġhon": 3881,
      "Ġunique": 3882,
      "Ġmoder": 3883,
      "acing": 3884,
      "Ġdrops": 3885,
      "Ġinch": 3886,
      "Ġnative": 3887,
      "ras": 3888,
      "Ġbuilding": 3889,
      "Ġalive": 3890,
      "Ġlondon": 3891,
      "Ġcore": 3892,
      "Ġdates": 3893,
      "Ġquite": 3894,
      "water": 3895,
      "lets": 3896,
      "ota": 3897,
      "Ġgm": 3898,
      "za": 3899,
      "Ġtrip": 3900,
      "Ġinteractions": 3901,
      "Ġ37": 3902,
      "Ġcoll": 3903,
      "idents": 3904,
      "Ġcooking": 3905,
      "Ġgroups": 3906,
      "Ġrules": 3907,
      "ony": 3908,
      "enger": 3909,
      "Ġadap": 3910,
      "Ġ48": 3911,
      "Ġast": 3912,
      "Ġnort": 3913,
      "ipation": 3914,
      "estern": 3915,
      "Ġspan": 3916,
      "Ġconsult": 3917,
      "Ġload": 3918,
      "Ġmom": 3919,
      "allow": 3920,
      "Ġnurs": 3921,
      "Ġoils": 3922,
      "Ġmini": 3923,
      "Ġtool": 3924,
      "ado": 3925,
      "olf": 3926,
      "gers": 3927,
      "Ġbond": 3928,
      "ipping": 3929,
      "Ġshield": 3930,
      "oses": 3931,
      "Ġexplan": 3932,
      "Ġlun": 3933,
      "Ġreli": 3934,
      "imet": 3935,
      "Ġfeature": 3936,
      "Ġvehicles": 3937,
      "Ġfair": 3938,
      "Ġgc": 3939,
      "Ġfunds": 3940,
      "oul": 3941,
      "Ġtract": 3942,
      "rof": 3943,
      "Ġimplant": 3944,
      "Ġpm": 3945,
      "Ġjer": 3946,
      "Ġfortnite": 3947,
      "Ġgrand": 3948,
      "Ġstraight": 3949,
      "ara": 3950,
      "Ġseconds": 3951,
      "Ġnit": 3952,
      "Ġexecut": 3953,
      "Ġelena": 3954,
      "pers": 3955,
      "Ġsan": 3956,
      "Ġcas": 3957,
      "Ġyahoo": 3958,
      "Ġves": 3959,
      "Ġbags": 3960,
      "ray": 3961,
      "Ġdose": 3962,
      "Ġhear": 3963,
      "Ġmoles": 3964,
      "Ġactual": 3965,
      "Ġrespect": 3966,
      "Ġgree": 3967,
      "Ġmexico": 3968,
      "Ġsizes": 3969,
      "Ġpaint": 3970,
      "Ġheld": 3971,
      "urse": 3972,
      "ored": 3973,
      "Ġshell": 3974,
      "Ġradi": 3975,
      "Ġunion": 3976,
      "Ġflag": 3977,
      "Ġincreases": 3978,
      "istic": 3979,
      "Ġprefer": 3980,
      "Ġteacher": 3981,
      "Ġpotential": 3982,
      "Ġyog": 3983,
      "Ġcele": 3984,
      "Ġlibrary": 3985,
      "Ġstructure": 3986,
      "Ġhen": 3987,
      "Ġsubtract": 3988,
      "estic": 3989,
      "Ġteaspoons": 3990,
      "Ġpizz": 3991,
      "ibution": 3992,
      "300": 3993,
      "44": 3994,
      "lla": 3995,
      "Ġpure": 3996,
      "Ġconvers": 3997,
      "Ġbeer": 3998,
      "Ġsale": 3999,
      "Ġprop": 4000,
      "Ġneck": 4001,
      "Ġcry": 4002,
      "Ġpath": 4003,
      "hal": 4004,
      "Ġmodels": 4005,
      "Ġschools": 4006,
      "llent": 4007,
      "Ġexplanation": 4008,
      "ture": 4009,
      "Ġtelevision": 4010,
      "Ġdamon": 4011,
      "Ġpull": 4012,
      "osphere": 4013,
      "Ġcustomers": 4014,
      "den": 4015,
      "Ġflavor": 4016,
      "Ġfinally": 4017,
      "Ġtas": 4018,
      "Ġvision": 4019,
      "chan": 4020,
      "Ġconstr": 4021,
      "Ġdigital": 4022,
      "Ġheal": 4023,
      "Ġlatest": 4024,
      "ael": 4025,
      "Ġexplo": 4026,
      "Ġsteel": 4027,
      "conut": 4028,
      "Ġshape": 4029,
      "Ġstarted": 4030,
      "Ġfavor": 4031,
      "empt": 4032,
      "Ġregistered": 4033,
      "Ġbache": 4034,
      "Ġdivor": 4035,
      "Ġreasons": 4036,
      "Ġmaster": 4037,
      "Ġsheet": 4038,
      "Ġgluc": 4039,
      "Ġpermanent": 4040,
      "Ġteaspoon": 4041,
      "Ġinstit": 4042,
      "Ġpractice": 4043,
      "Ġlisted": 4044,
      "Ġdomain": 4045,
      "Ġdecl": 4046,
      "Ġfather": 4047,
      "Ġresour": 4048,
      "Ġ#": 4049,
      "loc": 4050,
      "Ġlas": 4051,
      "Ġhydro": 4052,
      "sm": 4053,
      "check": 4054,
      "Ġflex": 4055,
      "illed": 4056,
      "Ġhands": 4057,
      "Ġrh": 4058,
      "Ġformer": 4059,
      "Ġconfirm": 4060,
      "sapp": 4061,
      "df": 4062,
      "Ġjoin": 4063,
      "Ġready": 4064,
      "Ġbreath": 4065,
      "xiety": 4066,
      "nausea": 4067,
      "Ġreturns": 4068,
      "weight": 4069,
      "izziness": 4070,
      "Ġ300": 4071,
      "Ġreceived": 4072,
      "gl": 4073,
      "dl": 4074,
      "kg": 4075,
      "Ġmatch": 4076,
      "Ġlake": 4077,
      "Ġrecy": 4078,
      "Ġbrands": 4079,
      "Ġzo": 4080,
      "Ġrecently": 4081,
      "Ġstudent": 4082,
      "Ġdil": 4083,
      "Ġgel": 4084,
      "Ġcustomer": 4085,
      "Ġvegetables": 4086,
      "Ġreferred": 4087,
      "uation": 4088,
      "Ġcarri": 4089,
      "Ġqualify": 4090,
      "Ġregard": 4091,
      "Ġdrinks": 4092,
      "Ġones": 4093,
      "sey": 4094,
      "Ġmovement": 4095,
      "âĢĿ.": 4096,
      "Ġsupply": 4097,
      "Ġwheat": 4098,
      "Ġobs": 4099,
      "Ġric": 4100,
      "izing": 4101,
      "Ġcig": 4102,
      "mar": 4103,
      "Ġemerg": 4104,
      "Ġsout": 4105,
      "Ġseat": 4106,
      "Ġsmell": 4107,
      "Ġscreens": 4108,
      "umin": 4109,
      "ivil": 4110,
      "Ġfal": 4111,
      "unately": 4112,
      "Ġnuts": 4113,
      "Ġbrothers": 4114,
      "ulated": 4115,
      "Ġwheel": 4116,
      "Ġcramps": 4117,
      "Ġsummer": 4118,
      "Ġelse": 4119,
      "mmhg": 4120,
      "Ġdigestive": 4121,
      "unt": 4122,
      "Ġestimated": 4123,
      "Ġnearly": 4124,
      "âĢ¦": 4125,
      "Ġft": 4126,
      "Ġanyone": 4127,
      "Ġontar": 4128,
      "Ġeverything": 4129,
      "Ġfollowed": 4130,
      "Ġgerman": 4131,
      "Ġord": 4132,
      "Ġretirement": 4133,
      "lin": 4134,
      "Ġmb": 4135,
      "Ġontario": 4136,
      "ku": 4137,
      "istance": 4138,
      "Ġdispl": 4139,
      "Ġbattle": 4140,
      "Ġtrust": 4141,
      "burn": 4142,
      "fol": 4143,
      "Ġmeal": 4144,
      "Ġgear": 4145,
      "wise": 4146,
      "Ġsnapchat": 4147,
      "Ġveter": 4148,
      "Ġabsol": 4149,
      "swe": 4150,
      "Ġscroll": 4151,
      "26": 4152,
      "lier": 4153,
      "uals": 4154,
      "Ġcere": 4155,
      "Ġens": 4156,
      "Ġdollar": 4157,
      "Ġsuit": 4158,
      "Ġprices": 4159,
      "riend": 4160,
      "Ġalex": 4161,
      "Ġ65": 4162,
      "nee": 4163,
      "Ġtechnology": 4164,
      "Ġmi": 4165,
      "Ġreaction": 4166,
      "Ġsupposed": 4167,
      "Ġapplications": 4168,
      "Ġradio": 4169,
      "pir": 4170,
      "ann": 4171,
      "Ġtempor": 4172,
      "Ġdesktop": 4173,
      "Ġgiving": 4174,
      "also": 4175,
      "Ġratio": 4176,
      "Ġslo": 4177,
      "Ġwhatsapp": 4178,
      "Ġelectricity": 4179,
      "Ġsubstance": 4180,
      "Ġcart": 4181,
      "Ġtalk": 4182,
      "Ġconcent": 4183,
      "Ġpron": 4184,
      "Ġoral": 4185,
      "Ġmor": 4186,
      "Ġowned": 4187,
      "Ġinstructions": 4188,
      "Ġrap": 4189,
      "Ġautomatically": 4190,
      "lete": 4191,
      "Ġimmediately": 4192,
      "Ġfight": 4193,
      "Ġlb": 4194,
      "Ġfocus": 4195,
      "usion": 4196,
      "aland": 4197,
      "Ġabsolute": 4198,
      "ania": 4199,
      "Ġchlor": 4200,
      "Ġdeliver": 4201,
      "'.": 4202,
      "Ġchanged": 4203,
      "Ġgard": 4204,
      "emption": 4205,
      "Ġbehav": 4206,
      "Ġmap": 4207,
      "Ġlegs": 4208,
      "osite": 4209,
      "Ġexcellent": 4210,
      "Ġbrowser": 4211,
      "Ġms": 4212,
      "Ġrepublic": 4213,
      "Ġemployee": 4214,
      "vol": 4215,
      "Ġrot": 4216,
      "Ġglucose": 4217,
      "Ġgreater": 4218,
      "Ġpizza": 4219,
      "Ġvaccine": 4220,
      "Ġbeef": 4221,
      "Ġgrade": 4222,
      "ession": 4223,
      "Ġpurpose": 4224,
      "Ġriver": 4225,
      "Ġcoconut": 4226,
      "count": 4227,
      "Ġul": 4228,
      "Ġmut": 4229,
      "Ġminecraft": 4230,
      "Ġrab": 4231,
      "ros": 4232,
      "Ġdetermine": 4233,
      "Ġpul": 4234,
      "Ġmit": 4235,
      "Ġbecame": 4236,
      "Ġsetup": 4237,
      "Ġdiagn": 4238,
      "Ġwish": 4239,
      "neys": 4240,
      "Ġchance": 4241,
      "Ġissued": 4242,
      "Ġhu": 4243,
      "Ġweather": 4244,
      "cers": 4245,
      "Ġinternal": 4246,
      "Ġmountain": 4247,
      "Ġoce": 4248,
      "Ġna": 4249,
      "Ġseasons": 4250,
      "sels": 4251,
      "Ġtrig": 4252,
      "Ġprotection": 4253,
      "Ġaqu": 4254,
      "Ġauto": 4255,
      "kin": 4256,
      "Ġwis": 4257,
      "Ġneut": 4258,
      "Ġthanks": 4259,
      "Ġfrozen": 4260,
      "Ġmajority": 4261,
      "Ġmir": 4262,
      "Ġfeeding": 4263,
      "Ġmilitary": 4264,
      "Ġuter": 4265,
      "Ġmostly": 4266,
      "Ġdied": 4267,
      "Ġplaying": 4268,
      "Ġclaims": 4269,
      "Ġmonthly": 4270,
      "Ġaccurate": 4271,
      "ological": 4272,
      "Ġtender": 4273,
      "Ġhorse": 4274,
      "Ġnfl": 4275,
      "Ġpackage": 4276,
      "Ġremember": 4277,
      "illa": 4278,
      "Ġken": 4279,
      "Ġhappen": 4280,
      "Ġbegins": 4281,
      "ek": 4282,
      "Ġjump": 4283,
      "Ġplans": 4284,
      "Ġadvis": 4285,
      "Ġsore": 4286,
      "Ġ180": 4287,
      "Ġatom": 4288,
      "Ġtransport": 4289,
      "lines": 4290,
      "Ġphones": 4291,
      "gans": 4292,
      "Ġcertified": 4293,
      "esium": 4294,
      "Ġfund": 4295,
      "Ġvict": 4296,
      "Ġbooks": 4297,
      "Ġbread": 4298,
      "Ġlaunch": 4299,
      "dis": 4300,
      "Ġaudio": 4301,
      "Ġcolors": 4302,
      "urb": 4303,
      "Ġnotification": 4304,
      "Ġbatteries": 4305,
      "Ġbay": 4306,
      "Ġvs": 4307,
      "Ġscan": 4308,
      "Ġheadphones": 4309,
      "Ġsides": 4310,
      "Ġimpact": 4311,
      "Ġspring": 4312,
      "Ġchronic": 4313,
      "Ġfloor": 4314,
      "Ġhormone": 4315,
      "Ġber": 4316,
      "Ġlinked": 4317,
      "Ġattract": 4318,
      "Ġlocations": 4319,
      "Ġprovider": 4320,
      "Ġtarget": 4321,
      "Ġshar": 4322,
      "Ġrecent": 4323,
      "Ġguide": 4324,
      "ias": 4325,
      "Ġzealand": 4326,
      "Ġtablets": 4327,
      "cies": 4328,
      "Ġfailure": 4329,
      "Ġcombinations": 4330,
      "Ġstation": 4331,
      "Ġevents": 4332,
      "37": 4333,
      "Ġdisability": 4334,
      "Ġcitizen": 4335,
      "Ġarab": 4336,
      "Ġexactly": 4337,
      "36": 4338,
      "oming": 4339,
      "Ġapart": 4340,
      "Ġchips": 4341,
      "entially": 4342,
      "Ġsperm": 4343,
      "Ġinflammation": 4344,
      "list": 4345,
      "Ġestab": 4346,
      "Ġissue": 4347,
      "Ġshamp": 4348,
      "Ġdatab": 4349,
      "omin": 4350,
      "Ġjour": 4351,
      "Ġresident": 4352,
      "clo": 4353,
      "ji": 4354,
      "Ġram": 4355,
      "Ġsch": 4356,
      "Ġprocessing": 4357,
      "Ġquarter": 4358,
      "tv": 4359,
      "Ġcompound": 4360,
      "aret": 4361,
      "Ġwestern": 4362,
      "Ġweap": 4363,
      "itely": 4364,
      "Ġtire": 4365,
      "Ġreven": 4366,
      "Ġboots": 4367,
      "ani": 4368,
      "Ġconcer": 4369,
      "Ġrecip": 4370,
      "Ġdistrict": 4371,
      "roke": 4372,
      "Ġglobal": 4373,
      "sign": 4374,
      "Ġrid": 4375,
      "Ġadjust": 4376,
      "Ġfuture": 4377,
      "Ġcommer": 4378,
      "Ġbeginning": 4379,
      "Ġwrong": 4380,
      "osph": 4381,
      "Ġdecimal": 4382,
      "Ġcalculated": 4383,
      "Ġvariable": 4384,
      "Ġtooth": 4385,
      "Ġcarbohydrates": 4386,
      "Ġseparate": 4387,
      "Ġtablespoon": 4388,
      "Ġsd": 4389,
      "Ġanxiety": 4390,
      "400": 4391,
      "cg": 4392,
      "acters": 4393,
      "men": 4394,
      "Ġvolt": 4395,
      "Ġmand": 4396,
      "card": 4397,
      "feeding": 4398,
      "Ġregistration": 4399,
      "Ġformed": 4400,
      "Ġdesired": 4401,
      "Ġcharacters": 4402,
      "Ġnutrition": 4403,
      "pay": 4404,
      "Ġfox": 4405,
      "nd": 4406,
      "Ġfruits": 4407,
      "ivered": 4408,
      "fin": 4409,
      "Ġfinale": 4410,
      "Ġharmful": 4411,
      "Ġdisorder": 4412,
      "Ġofficially": 4413,
      "Ġdivision": 4414,
      "ket": 4415,
      "Ġoven": 4416,
      "Ġsets": 4417,
      "kary": 4418,
      "Ġarth": 4419,
      "Ġfriendly": 4420,
      "Ġhaw": 4421,
      "Ġguy": 4422,
      "Ġowners": 4423,
      "Ġcelebr": 4424,
      "patitis": 4425,
      "Ġchain": 4426,
      "Ġorganis": 4427,
      "Ġchampionship": 4428,
      "Ġbars": 4429,
      "Ġcontag": 4430,
      "Ġarch": 4431,
      "crete": 4432,
      "Ġaim": 4433,
      "adder": 4434,
      "Ġbehind": 4435,
      "Ġtreated": 4436,
      "cil": 4437,
      "Ġwaves": 4438,
      "Ġjew": 4439,
      "Ġfluids": 4440,
      "Ġhem": 4441,
      "Ġscene": 4442,
      "nal": 4443,
      "ternal": 4444,
      "Ġcontagious": 4445,
      "Ġspir": 4446,
      "part": 4447,
      "Ġgraph": 4448,
      "aked": 4449,
      "Ġclassic": 4450,
      "Ġvaginal": 4451,
      "Ġplug": 4452,
      "ferences": 4453,
      "Ġsilver": 4454,
      "rant": 4455,
      "ini": 4456,
      "Ġbroken": 4457,
      "Ġcausing": 4458,
      "Ġstreet": 4459,
      "gia": 4460,
      "Ġanalyst": 4461,
      "inch": 4462,
      "ritis": 4463,
      "88": 4464,
      "Ġmeters": 4465,
      "Ġremote": 4466,
      "Ġplatform": 4467,
      "itors": 4468,
      "Ġgb": 4469,
      "regular": 4470,
      "Ġtrimes": 4471,
      "Ġinitial": 4472,
      "was": 4473,
      "Ġcommunity": 4474,
      "Ġindependent": 4475,
      "ality": 4476,
      "Ġfle": 4477,
      "Ġconstant": 4478,
      "fa": 4479,
      "awn": 4480,
      "Ġfab": 4481,
      "Ġcalend": 4482,
      "fish": 4483,
      "apor": 4484,
      "Ġlanguages": 4485,
      "fully": 4486,
      "Ġgermany": 4487,
      "150": 4488,
      "bu": 4489,
      "she": 4490,
      "ston": 4491,
      "Ġrefrigerator": 4492,
      "itical": 4493,
      "Ġexpected": 4494,
      "Ġconstit": 4495,
      "tion": 4496,
      "ratio": 4497,
      "Ġnothing": 4498,
      "Ġlitres": 4499,
      "Ġearnings": 4500,
      "aughter": 4501,
      "Ġgi": 4502,
      "Ġemot": 4503,
      "Ġusage": 4504,
      "Ġarg": 4505,
      "Ġpatter": 4506,
      "Ġprot": 4507,
      "Ġchew": 4508,
      "Ġbelieve": 4509,
      "Ġadject": 4510,
      "Ġprograms": 4511,
      "Ġacne": 4512,
      "Ġsoil": 4513,
      "Ġsimpl": 4514,
      "Ġscal": 4515,
      "Ġwet": 4516,
      "Ġlip": 4517,
      "Ġzone": 4518,
      "Ġcharged": 4519,
      "Ġprinc": 4520,
      "chers": 4521,
      "Ġtesting": 4522,
      "alled": 4523,
      "cons": 4524,
      "Ġpictures": 4525,
      "Ġire": 4526,
      "Ġkeyboard": 4527,
      "ww": 4528,
      "Ġcran": 4529,
      "Ġcancel": 4530,
      "Ġunfort": 4531,
      "Ġrevealed": 4532,
      "rim": 4533,
      "Ġlights": 4534,
      "wide": 4535,
      "Ġham": 4536,
      "equ": 4537,
      "Ġbecomes": 4538,
      "ampire": 4539,
      "Ġmetab": 4540,
      "Ġelectron": 4541,
      "Ġdomestic": 4542,
      "Ġeuropean": 4543,
      "76": 4544,
      "igate": 4545,
      "oh": 4546,
      "Ġexclus": 4547,
      "Ġzinc": 4548,
      "Ġmol": 4549,
      "Ġrepe": 4550,
      "Ġ140": 4551,
      "Ġestate": 4552,
      "Ġfigure": 4553,
      "Ġ2015": 4554,
      "ricts": 4555,
      "Ġinflu": 4556,
      "pan": 4557,
      "Ġnature": 4558,
      "Ġburning": 4559,
      "with": 4560,
      "Ġrating": 4561,
      "Ġ400": 4562,
      "38": 4563,
      "Ġran": 4564,
      "Ġgallon": 4565,
      "Ġoats": 4566,
      "Ġnurse": 4567,
      "Ġclin": 4568,
      "Ġcalculator": 4569,
      "inate": 4570,
      "ledge": 4571,
      "Ġireland": 4572,
      "Ġow": 4573,
      "Ġkore": 4574,
      "Ġworkout": 4575,
      "Ġkidneys": 4576,
      "Ġoccas": 4577,
      "bed": 4578,
      "ja": 4579,
      "Ġchap": 4580,
      "Ġclot": 4581,
      "Ġbachelor": 4582,
      "Ġcivil": 4583,
      "Ġactivities": 4584,
      "Ġnouns": 4585,
      "Ġturkey": 4586,
      "Ġnorthern": 4587,
      "norm": 4588,
      "Ġsec": 4589,
      "Ġdies": 4590,
      "Ġthurs": 4591,
      "Ġindividuals": 4592,
      "Ġnas": 4593,
      "Ġproperly": 4594,
      "ago": 4595,
      "uble": 4596,
      "used": 4597,
      "Ġcomplex": 4598,
      "Ġdisco": 4599,
      "Ġrestaur": 4600,
      "pn": 4601,
      "round": 4602,
      "Ġmoon": 4603,
      "Ġretail": 4604,
      "Ġactor": 4605,
      "Ġcommunication": 4606,
      "wa": 4607,
      "Ġtum": 4608,
      "Ġprescription": 4609,
      "Ġmeasurement": 4610,
      "Ġminds": 4611,
      "Ġevidence": 4612,
      "Ġfasting": 4613,
      "Ġbirds": 4614,
      "Ġtues": 4615,
      "Ġkept": 4616,
      "Ġtor": 4617,
      "Ġschedule": 4618,
      "inct": 4619,
      "Ġspend": 4620,
      "Ġtablet": 4621,
      "Ġspok": 4622,
      "Ġshampoo": 4623,
      "Ġoriginally": 4624,
      "Ġcurren": 4625,
      "umn": 4626,
      "vit": 4627,
      "selves": 4628,
      "imeters": 4629,
      "Ġtires": 4630,
      "Ġniger": 4631,
      "Ġhp": 4632,
      "Ġgh": 4633,
      "Ġprincip": 4634,
      "Ġanal": 4635,
      "Ġresol": 4636,
      "Ġbull": 4637,
      "Ġviol": 4638,
      "Ġtan": 4639,
      "Ġ196": 4640,
      "Ġjapanese": 4641,
      "cop": 4642,
      "Ġexpenses": 4643,
      "Ġsaturday": 4644,
      "48": 4645,
      "Ġartic": 4646,
      "ki": 4647,
      "sized": 4648,
      "Ġtrade": 4649,
      "abled": 4650,
      "Ġdatabase": 4651,
      "Ġbonds": 4652,
      "Ġslic": 4653,
      "Ġthous": 4654,
      "Ġdisplays": 4655,
      "Ġcorpor": 4656,
      "Ġextremely": 4657,
      "Ġyard": 4658,
      "Ġmanufactured": 4659,
      "Ġshut": 4660,
      "Ġserve": 4661,
      "ogen": 4662,
      "active": 4663,
      "fers": 4664,
      "Ġprofit": 4665,
      "data": 4666,
      "Ġcareer": 4667,
      "Ġbanned": 4668,
      "Ġrespon": 4669,
      "Ġhurt": 4670,
      "Ġalbum": 4671,
      "Ġlungs": 4672,
      "door": 4673,
      "Ġcentre": 4674,
      "Ġagent": 4675,
      "Ġlack": 4676,
      "Ġoutlook": 4677,
      "Ġwednes": 4678,
      "spe": 4679,
      "Ġship": 4680,
      "Ġapplied": 4681,
      "Ġwaterproof": 4682,
      "Ġmur": 4683,
      "ctors": 4684,
      "Ġcompleted": 4685,
      "95": 4686,
      "iter": 4687,
      "Ġunderstand": 4688,
      "Ġpanel": 4689,
      "Ġpoor": 4690,
      "Ġpasta": 4691,
      "Ġmoving": 4692,
      "Ġtrimester": 4693,
      "Ġspotting": 4694,
      "Ġrow": 4695,
      "bur": 4696,
      "Ġstone": 4697,
      "Ġkilogram": 4698,
      "Ġnerv": 4699,
      "Ġ55": 4700,
      "Ġsources": 4701,
      "uous": 4702,
      "acity": 4703,
      "Ġredemption": 4704,
      "ician": 4705,
      "Ġhall": 4706,
      "Ġlasts": 4707,
      "Ġoutput": 4708,
      "turn": 4709,
      "Ġaccepted": 4710,
      "outs": 4711,
      "Ġranges": 4712,
      "but": 4713,
      "Ġos": 4714,
      "Ġteams": 4715,
      "Ġsmooth": 4716,
      "iat": 4717,
      "Ġouter": 4718,
      "Ġlives": 4719,
      "Ġbreastfeeding": 4720,
      "Ġfel": 4721,
      "Ġcarol": 4722,
      "Ġillness": 4723,
      "Ġcomponents": 4724,
      "Ġcatch": 4725,
      "Ġprocedure": 4726,
      "idays": 4727,
      "Ġlayer": 4728,
      "Ġnervous": 4729,
      "Ġseats": 4730,
      "Ġconsume": 4731,
      "Ġdub": 4732,
      "Ġpharm": 4733,
      "Ġearlier": 4734,
      ";',": 4735,
      "Ġcot": 4736,
      "Ġnotes": 4737,
      "agon": 4738,
      "Ġpolicy": 4739,
      "son": 4740,
      "Ġmr": 4741,
      "Ġfer": 4742,
      "Ġhom": 4743,
      "lar": 4744,
      "osition": 4745,
      "Ġdistricts": 4746,
      "Ġrespir": 4747,
      "Ġly": 4748,
      "Ġlord": 4749,
      "Ġorganic": 4750,
      "Ġoperating": 4751,
      "oster": 4752,
      "Ġeveryone": 4753,
      "Ġreading": 4754,
      "Ġlogin": 4755,
      "Ġthrones": 4756,
      "Ġtomato": 4757,
      "Ġpit": 4758,
      "ower": 4759,
      "Ġcredits": 4760,
      "ipped": 4761,
      "Ġsulf": 4762,
      "Ġthumb": 4763,
      "season": 4764,
      "Ġminor": 4765,
      "Ġsecret": 4766,
      "make": 4767,
      "cluding": 4768,
      "Ġflights": 4769,
      "Ġunfortunately": 4770,
      "ighter": 4771,
      "Ġlooks": 4772,
      "Ġears": 4773,
      "Ġworker": 4774,
      "Ġhoney": 4775,
      "Ġduty": 4776,
      "Ġthursday": 4777,
      "Ġmechan": 4778,
      "Ġinstant": 4779,
      "oint": 4780,
      "Ġchecks": 4781,
      "iang": 4782,
      "ync": 4783,
      "Ġprovided": 4784,
      "Ġmedicare": 4785,
      "Ġpun": 4786,
      "Ġmagnesium": 4787,
      "Ġmention": 4788,
      "Ġkids": 4789,
      "Ġaid": 4790,
      "Ġmonitor": 4791,
      "Ġhepatitis": 4792,
      "Ġmeals": 4793,
      "Ġdefinitely": 4794,
      "Ġsyndr": 4795,
      "Ġasked": 4796,
      "Ġbelong": 4797,
      "Ġpaste": 4798,
      "Ġfinger": 4799,
      "Ġsty": 4800,
      "Ġparent": 4801,
      "pts": 4802,
      "Ġexchange": 4803,
      "screen": 4804,
      "Ġ38": 4805,
      "Ġbor": 4806,
      "ady": 4807,
      "Ġcd": 4808,
      "Ġsed": 4809,
      "Ġnursing": 4810,
      "Ġboost": 4811,
      "Ġinsert": 4812,
      "Ġlou": 4813,
      "uts": 4814,
      "Ġdirection": 4815,
      "Ġtuesday": 4816,
      "cule": 4817,
      "Ġdress": 4818,
      "verages": 4819,
      "dered": 4820,
      "Ġcolour": 4821,
      "Ġwrite": 4822,
      "Ġvampire": 4823,
      "Ġwednesday": 4824,
      "Ġtight": 4825,
      "Ġdancing": 4826,
      "Ġfrance": 4827,
      "Ġraise": 4828,
      "Ġhaz": 4829,
      "Ġletters": 4830,
      "Ġgreek": 4831,
      "Ġocean": 4832,
      "ov": 4833,
      "Ġsister": 4834,
      "inese": 4835,
      "orders": 4836,
      "oked": 4837,
      "Ġdivorce": 4838,
      "Ġbanks": 4839,
      "Ġcp": 4840,
      "Ġwatts": 4841,
      "Ġsms": 4842,
      "hot": 4843,
      "Ġgro": 4844,
      "Ġsuf": 4845,
      "Ġcrack": 4846,
      "Ġtherapy": 4847,
      "days": 4848,
      "Ġbell": 4849,
      "Ġcomfortable": 4850,
      "ĠÃĹ": 4851,
      "Ġhous": 4852,
      "Ġappet": 4853,
      "Ġadding": 4854,
      "Ġvirginia": 4855,
      "Ġemergency": 4856,
      "tw": 4857,
      "Ġcru": 4858,
      "Ġsaved": 4859,
      "Ġinjury": 4860,
      "igrams": 4861,
      "Ġbranch": 4862,
      "hi": 4863,
      "hood": 4864,
      "Ġ.',": 4865,
      "Ġdried": 4866,
      "Ġflash": 4867,
      "Ġreset": 4868,
      "unction": 4869,
      "Ġframe": 4870,
      "Ġvent": 4871,
      "inder": 4872,
      "Ġsyndrome": 4873,
      "Ġruss": 4874,
      "Ġidentity": 4875,
      "Ġsensitive": 4876,
      "Ġgarlic": 4877,
      "Ġnails": 4878,
      "Ġfet": 4879,
      "after": 4880,
      "Ġdream": 4881,
      "Ġphosph": 4882,
      "Ġstages": 4883,
      "Ġkick": 4884,
      "Ġeasier": 4885,
      "ictionary": 4886,
      "hand": 4887,
      "Ġyield": 4888,
      "odies": 4889,
      "sect": 4890,
      "Ġscale": 4891,
      "Ġbreed": 4892,
      "oz": 4893,
      "ville": 4894,
      "Ġspin": 4895,
      "Ġhealthcare": 4896,
      "Ġassum": 4897,
      "Ġdeficiency": 4898,
      "Ġ250": 4899,
      "Ġcontacts": 4900,
      "Ġdeveloped": 4901,
      "evee": 4902,
      "Ġparticip": 4903,
      "Ġsamp": 4904,
      "berries": 4905,
      "Ġsleeping": 4906,
      "har": 4907,
      "ada": 4908,
      "Ġket": 4909,
      "Ġwriting": 4910,
      "mus": 4911,
      "Ġdetermined": 4912,
      "Ġcents": 4913,
      "Ġnodes": 4914,
      "Ġdeposit": 4915,
      "Ġsusp": 4916,
      "Ġspanish": 4917,
      "Ġds": 4918,
      "uth": 4919,
      "Ġmembr": 4920,
      "Ġaustralian": 4921,
      "Ġpel": 4922,
      "grade": 4923,
      "Ġba": 4924,
      "ydia": 4925,
      "Ġvirt": 4926,
      "Ġuterus": 4927,
      "Ġnc": 4928,
      "Ġaffected": 4929,
      "Ġinvestment": 4930,
      "Ġcovers": 4931,
      "axy": 4932,
      "Ġuniversal": 4933,
      "bus": 4934,
      "Ġquad": 4935,
      "Ġrenewed": 4936,
      "Ġluck": 4937,
      "Ġ33": 4938,
      "Ġgrowing": 4939,
      "Ġtrying": 4940,
      "Ġmilligrams": 4941,
      "Ġprivacy": 4942,
      "Ġconduct": 4943,
      "band": 4944,
      "Ġpepp": 4945,
      "Ġthemselves": 4946,
      "Ġexpos": 4947,
      "brevi": 4948,
      "Ġimmune": 4949,
      "rated": 4950,
      "Ġstim": 4951,
      "je": 4952,
      "ora": 4953,
      "Ġ52": 4954,
      "Ġhappy": 4955,
      "Ġgallons": 4956,
      "Ġworse": 4957,
      "Ġbiggest": 4958,
      "Ġpuppy": 4959,
      "igation": 4960,
      "Ġchat": 4961,
      "Ġbacterial": 4962,
      "Ġemployer": 4963,
      "Ġweakness": 4964,
      "Ġshop": 4965,
      "rofen": 4966,
      "Ġeevee": 4967,
      "Ġtemperatures": 4968,
      "Ġrect": 4969,
      "Ġrise": 4970,
      "Ġtrail": 4971,
      "Ġupload": 4972,
      "Ġabdominal": 4973,
      "ria": 4974,
      "Ġexperien": 4975,
      "Ġleading": 4976,
      "Ġexisting": 4977,
      "Ġpremiere": 4978,
      "Ġthyroid": 4979,
      "Ġcolon": 4980,
      "Ġafrican": 4981,
      "washer": 4982,
      "Ġadministr": 4983,
      "Ġfalls": 4984,
      "Ġdelivered": 4985,
      "Ġengineering": 4986,
      "Ġmarks": 4987,
      "Ġkilled": 4988,
      "Ġdimensions": 4989,
      "Ġohio": 4990,
      "more": 4991,
      "Ġacce": 4992,
      "Ġtun": 4993,
      "Ġsoci": 4994,
      "Ġdeductible": 4995,
      "kal": 4996,
      "opic": 4997,
      "Ġphr": 4998,
      "Ġinterview": 4999,
      "Ġidea": 5000,
      "Ġleaving": 5001,
      "Ġmolecule": 5002,
      "such": 5003,
      "Ġmath": 5004,
      "Ġexternal": 5005,
      "Ġdc": 5006,
      "Ġnewborn": 5007,
      "Ġcontribut": 5008,
      "Ġvessels": 5009,
      "bra": 5010,
      "lies": 5011,
      "Ġjava": 5012,
      "Ġpowerful": 5013,
      "Ġresponse": 5014,
      "roph": 5015,
      "sts": 5016,
      "Ġfilter": 5017,
      "lant": 5018,
      "Ġquart": 5019,
      "Ġcrime": 5020,
      "ext": 5021,
      "Ġago": 5022,
      "Ġrevenue": 5023,
      "friend": 5024,
      "Ġempt": 5025,
      "Ġlearning": 5026,
      "Ġweighs": 5027,
      "Ġrash": 5028,
      "Ġrelatively": 5029,
      "Ġspray": 5030,
      "Ġdemand": 5031,
      "zing": 5032,
      "Ġparticularly": 5033,
      "Ġfabric": 5034,
      "mitted": 5035,
      "itation": 5036,
      "Ġrisks": 5037,
      "atin": 5038,
      "ked": 5039,
      "Ġfertil": 5040,
      "Ġvib": 5041,
      "Ġsport": 5042,
      "Ġtransmission": 5043,
      "Ġremains": 5044,
      "have": 5045,
      "Ġpix": 5046,
      "Ġproteins": 5047,
      "Ġorganization": 5048,
      "Ġmoderate": 5049,
      "Ġensure": 5050,
      "itude": 5051,
      "bir": 5052,
      "life": 5053,
      "Ġchrome": 5054,
      "wal": 5055,
      "Ġsi": 5056,
      "Ġequip": 5057,
      "Ġages": 5058,
      "Ġerror": 5059,
      "Ġfridge": 5060,
      "Ġcontaining": 5061,
      "Ġdemo": 5062,
      "Ġplaces": 5063,
      "Ġdishwasher": 5064,
      "Ġath": 5065,
      "istry": 5066,
      "name": 5067,
      "Ġpurposes": 5068,
      "utions": 5069,
      "aduate": 5070,
      "Ġpear": 5071,
      "comfort": 5072,
      "Ġfatigue": 5073,
      "dy": 5074,
      "Ġrefund": 5075,
      "Ġpush": 5076,
      "Ġportion": 5077,
      "Ġgoods": 5078,
      "Ġguard": 5079,
      "house": 5080,
      "amine": 5081,
      "Ġcategory": 5082,
      "Ġcommercial": 5083,
      "Ġappetite": 5084,
      "ben": 5085,
      "Ġdin": 5086,
      "Ġpairs": 5087,
      "ple": 5088,
      "Ġsetting": 5089,
      "Ġhab": 5090,
      "Ġalone": 5091,
      "sole": 5092,
      "01": 5093,
      "gi": 5094,
      "Ġrights": 5095,
      "Ġpainful": 5096,
      "Ġfixed": 5097,
      "Ġeps": 5098,
      "Ġfirm": 5099,
      "Ġindicate": 5100,
      "Ġconcrete": 5101,
      "Ġholidays": 5102,
      "ola": 5103,
      "Ġindustry": 5104,
      "Ġsoy": 5105,
      "Ġther": 5106,
      "Ġcircul": 5107,
      "Ġbm": 5108,
      "Ġdaughter": 5109,
      "Ġkeys": 5110,
      "Ġthought": 5111,
      "llers": 5112,
      "Ġhormones": 5113,
      "ysis": 5114,
      "Ġrecommends": 5115,
      "ano": 5116,
      "Ġorgans": 5117,
      "Ġvill": 5118,
      "Ġtransl": 5119,
      "Ġgum": 5120,
      "Ġcloud": 5121,
      "Ġcloth": 5122,
      "Ġidentical": 5123,
      "west": 5124,
      "Ġjoints": 5125,
      "gas": 5126,
      "Ġcin": 5127,
      "Ġsinger": 5128,
      "rer": 5129,
      "Ġwhose": 5130,
      "Ġital": 5131,
      "Ġimages": 5132,
      "Ġemb": 5133,
      "Ġpieces": 5134,
      "cp": 5135,
      "apes": 5136,
      "Ġcerv": 5137,
      "Ġairlines": 5138,
      "Ġbasis": 5139,
      "apple": 5140,
      "Ġom": 5141,
      "itter": 5142,
      "Ġplenty": 5143,
      "Ġrouting": 5144,
      "lamydia": 5145,
      "Ġdictionary": 5146,
      "Ġblocks": 5147,
      "Ġnumer": 5148,
      "Ġtriang": 5149,
      "Ġrat": 5150,
      "ince": 5151,
      "ibl": 5152,
      "lands": 5153,
      "Ġbottles": 5154,
      "Ġresources": 5155,
      "sub": 5156,
      "Ġfarm": 5157,
      "uprofen": 5158,
      "Ġdiaries": 5159,
      "Ġchinese": 5160,
      "Ġgalaxy": 5161,
      "Ġsense": 5162,
      "Ġumb": 5163,
      "Ġ72": 5164,
      "Ġruns": 5165,
      "Ġprimarily": 5166,
      "Ġ%": 5167,
      "Ġforeign": 5168,
      "Ġtet": 5169,
      "Ġdots": 5170,
      "Ġbranc": 5171,
      "Ġlayers": 5172,
      "long": 5173,
      "Ġreports": 5174,
      "Ġstret": 5175,
      "ii": 5176,
      "Ġintest": 5177,
      "eling": 5178,
      "Ġchlamydia": 5179,
      "Ġboot": 5180,
      "Ġexport": 5181,
      "Ġcomplic": 5182,
      "Ġadvanced": 5183,
      "Ġvod": 5184,
      "Ġrelig": 5185,
      "Ġachieve": 5186,
      "Ġimplantation": 5187,
      "fit": 5188,
      "vic": 5189,
      "Ġgeneration": 5190,
      "idel": 5191,
      "Ġtook": 5192,
      "Ġusual": 5193,
      "Ġgrav": 5194,
      "atar": 5195,
      "Ġmeg": 5196,
      "Ġsolar": 5197,
      "Ġspoken": 5198,
      "Ġcos": 5199,
      "Ġbey": 5200,
      "Ġtwin": 5201,
      "Ġinstalled": 5202,
      "lers": 5203,
      "Ġitaly": 5204,
      "Ġassociation": 5205,
      "Ġresponsible": 5206,
      "Ġholds": 5207,
      "pri": 5208,
      "ibly": 5209,
      "Ġdebit": 5210,
      "uro": 5211,
      "Ġhbo": 5212,
      "Ġcoast": 5213,
      "Ġspecifically": 5214,
      "Ġagre": 5215,
      "Ġcapacity": 5216,
      "Ġfamous": 5217,
      "Ġcollection": 5218,
      "Ġirish": 5219,
      "Ġreduced": 5220,
      "rate": 5221,
      "elly": 5222,
      "Ġaward": 5223,
      "Ġsauce": 5224,
      "Ġrs": 5225,
      "Ġchief": 5226,
      "Ġwidely": 5227,
      "39": 5228,
      "health": 5229,
      "ayer": 5230,
      "Ġbegan": 5231,
      "Ġcharging": 5232,
      "Ġfinish": 5233,
      "Ġarrive": 5234,
      "Ġcandid": 5235,
      "Ġmental": 5236,
      "tenance": 5237,
      "Ġregul": 5238,
      "rin": 5239,
      "Ġdir": 5240,
      "Ġ130": 5241,
      "Ġeastern": 5242,
      "Ġyounger": 5243,
      "ford": 5244,
      "orter": 5245,
      "Ġexposure": 5246,
      "Ġdemocr": 5247,
      "Ġdisturb": 5248,
      "Ġonto": 5249,
      "ortun": 5250,
      "Ġsam": 5251,
      "Ġabc": 5252,
      "Ġgarage": 5253,
      "Ġemployment": 5254,
      "bing": 5255,
      "enn": 5256,
      "Ġgast": 5257,
      "Ġfavorite": 5258,
      "Ġpap": 5259,
      "Ġstri": 5260,
      "ering": 5261,
      "Ġgirls": 5262,
      "Ġterrit": 5263,
      "Ġchall": 5264,
      "Ġsores": 5265,
      "Ġpaying": 5266,
      "Ġpaypal": 5267,
      "Ġadministration": 5268,
      "trans": 5269,
      "Ġmillilit": 5270,
      "Ġtrial": 5271,
      "Ġbright": 5272,
      "Ġmagic": 5273,
      "Ġintroduced": 5274,
      "46": 5275,
      "cc": 5276,
      "Ġappearance": 5277,
      "Ġkilo": 5278,
      "Ġmissed": 5279,
      "Ġexecutive": 5280,
      "Ġcopper": 5281,
      "Ġspeaking": 5282,
      "Ġled": 5283,
      "Ġdepression": 5284,
      "Ġcaps": 5285,
      "Ġmichael": 5286,
      "ament": 5287,
      "Ġvert": 5288,
      "Ġestimate": 5289,
      "dig": 5290,
      "Ġjames": 5291,
      "Ġride": 5292,
      "Ġcommit": 5293,
      "aker": 5294,
      "gu": 5295,
      "Ġlicens": 5296,
      "Ġpolar": 5297,
      "Ġrank": 5298,
      "Ġnerve": 5299,
      "Ġgoal": 5300,
      "Ġreliable": 5301,
      "?',": 5302,
      "ares": 5303,
      "ups": 5304,
      "point": 5305,
      "Ġfatty": 5306,
      "Ġbasket": 5307,
      "Ġpreferences": 5308,
      "Ġpremiered": 5309,
      "Ġdm": 5310,
      "Ġnba": 5311,
      "Ġpoisoning": 5312,
      "normal": 5313,
      "ock": 5314,
      "Ġabbrevi": 5315,
      "Ġlegally": 5316,
      "Ġcoverage": 5317,
      "iet": 5318,
      "Ġcomposed": 5319,
      "aching": 5320,
      "Ġpiece": 5321,
      "lox": 5322,
      "riage": 5323,
      "Ġconstruction": 5324,
      "Ġworkers": 5325,
      "Ġopening": 5326,
      "Ġprotected": 5327,
      "Ġsouthern": 5328,
      "Ġpork": 5329,
      "Ġlu": 5330,
      "Ġknowledge": 5331,
      "Ġglasses": 5332,
      "ography": 5333,
      "Ġprompt": 5334,
      "Ġbound": 5335,
      "Ġparticles": 5336,
      "Ġcurrency": 5337,
      "zz": 5338,
      "Ġreact": 5339,
      "Ġselected": 5340,
      "Ġfrequently": 5341,
      "34": 5342,
      "Ġig": 5343,
      "Ġpassed": 5344,
      "Ġtitles": 5345,
      "Ġopportun": 5346,
      "urch": 5347,
      "Ġarter": 5348,
      "Ġatmosphere": 5349,
      "Ġgig": 5350,
      "Ġirregular": 5351,
      "Ġcigaret": 5352,
      "Ġslope": 5353,
      "âĦ": 5354,
      "Ġcompr": 5355,
      "gram": 5356,
      "Ġcompounds": 5357,
      "Ġfourth": 5358,
      "Ġibuprofen": 5359,
      "Ġsentence": 5360,
      "take": 5361,
      "Ġbol": 5362,
      "ibute": 5363,
      "Ġexperts": 5364,
      "Ġangles": 5365,
      "Ġcalendar": 5366,
      "Ġequipment": 5367,
      "imeter": 5368,
      "Ġdebt": 5369,
      "Ġdisp": 5370,
      "Ġeb": 5371,
      "iful": 5372,
      "place": 5373,
      "Ġcharges": 5374,
      "Ġobjects": 5375,
      "'m": 5376,
      "ences": 5377,
      "Ġextract": 5378,
      "Ġresear": 5379,
      "Ġmad": 5380,
      "iders": 5381,
      "Ġcongress": 5382,
      "Ġinsul": 5383,
      "Ġtheory": 5384,
      "Ġfewer": 5385,
      "ari": 5386,
      "month": 5387,
      "Ġconstipation": 5388,
      "Ġapples": 5389,
      "Ġrapid": 5390,
      "cket": 5391,
      "ura": 5392,
      "ansas": 5393,
      "pres": 5394,
      "Ġcontainer": 5395,
      "known": 5396,
      "Ġends": 5397,
      "Ġearned": 5398,
      "Ġempty": 5399,
      "Ġgly": 5400,
      "Ġconvent": 5401,
      "Ġalmon": 5402,
      "Ġbranches": 5403,
      "fs": 5404,
      "Ġedge": 5405,
      "Ġmiscar": 5406,
      "Ġcord": 5407,
      "Ġroots": 5408,
      "Ġtradition": 5409,
      "inst": 5410,
      "abs": 5411,
      "Ġcop": 5412,
      "ertain": 5413,
      "force": 5414,
      "pol": 5415,
      "Ġcc": 5416,
      "iser": 5417,
      "emia": 5418,
      "Ġderived": 5419,
      "Ġtaxed": 5420,
      "Ġdivis": 5421,
      "Ġlabel": 5422,
      "Ġbreathing": 5423,
      "Ġpier": 5424,
      "ionally": 5425,
      "Ġmicrow": 5426,
      "Ġrup": 5427,
      "iling": 5428,
      "iox": 5429,
      "Ġalph": 5430,
      "Ġotherwise": 5431,
      "Ġheadaches": 5432,
      "Ġeen": 5433,
      "Ġsitting": 5434,
      "ham": 5435,
      "Ġrepro": 5436,
      "27": 5437,
      "Ġcleaning": 5438,
      "Ġplaced": 5439,
      "rd": 5440,
      "vas": 5441,
      "Ġmp": 5442,
      "Ġstaff": 5443,
      "hesis": 5444,
      "Ġislands": 5445,
      "Ġadvant": 5446,
      "worm": 5447,
      "65": 5448,
      "Ġcotton": 5449,
      "alle": 5450,
      "Ġclasses": 5451,
      "Ġdiameter": 5452,
      "rine": 5453,
      "Ġshipping": 5454,
      "Ġprescrib": 5455,
      "Ġperfectly": 5456,
      "Ġsurpr": 5457,
      "isters": 5458,
      "Ġherpes": 5459,
      "Ġfrequency": 5460,
      "Ġfifth": 5461,
      "Ġsuitable": 5462,
      "high": 5463,
      "Ġgender": 5464,
      "Ġjon": 5465,
      "Ġleaf": 5466,
      "Ġstamps": 5467,
      "Ġgoals": 5468,
      "Ġmetals": 5469,
      "chen": 5470,
      "Ġmary": 5471,
      "Ġstroke": 5472,
      "Ġprogramm": 5473,
      "Ġbehavior": 5474,
      "Ġopened": 5475,
      "contin": 5476,
      "war": 5477,
      "Ġry": 5478,
      "Ġweekly": 5479,
      "Ġsavings": 5480,
      "Ġhi": 5481,
      "Ġserved": 5482,
      "Ġnecessarily": 5483,
      "Ġcel": 5484,
      "Ġped": 5485,
      "Ġappoint": 5486,
      "rum": 5487,
      "Ġcirc": 5488,
      "game": 5489,
      "Ġ44": 5490,
      "Ġresistant": 5491,
      "Ġhawai": 5492,
      "fir": 5493,
      "field": 5494,
      "Ġcs": 5495,
      "Ġdys": 5496,
      "Ġrings": 5497,
      "Ġjersey": 5498,
      "roy": 5499,
      "Ġ46": 5500,
      "Ġmaintenance": 5501,
      "Ġowner": 5502,
      "Ġdigits": 5503,
      "Ġevolve": 5504,
      "Ġwage": 5505,
      "Ġprocessed": 5506,
      "Ġpac": 5507,
      "âĦ¢": 5508,
      "Ġhus": 5509,
      "Ġappropri": 5510,
      "Ġstandards": 5511,
      "Ġelectrical": 5512,
      "Ġsexual": 5513,
      "Ġconsumption": 5514,
      "Ġslices": 5515,
      "Ġbenefic": 5516,
      "download": 5517,
      "fast": 5518,
      "Ġattr": 5519,
      "Ġstronger": 5520,
      "yy": 5521,
      "Ġsequ": 5522,
      "istan": 5523,
      "Ġaged": 5524,
      "Ġlegend": 5525,
      "Ġspo": 5526,
      "Ġstones": 5527,
      ").',": 5528,
      "Ġtu": 5529,
      "inated": 5530,
      "iced": 5531,
      "ashion": 5532,
      "Ġmortgage": 5533,
      "cture": 5534,
      "station": 5535,
      "Ġbeat": 5536,
      "Ġspect": 5537,
      "azil": 5538,
      "Ġmoment": 5539,
      "600": 5540,
      "Ġassess": 5541,
      "ema": 5542,
      "Ġturns": 5543,
      "Ġpatient": 5544,
      "Ġreco": 5545,
      "Ġagency": 5546,
      "Ġoccup": 5547,
      "Ġcbs": 5548,
      "Ġinner": 5549,
      "Ġrear": 5550,
      "Ġzip": 5551,
      "Ġtoy": 5552,
      "mia": 5553,
      "erves": 5554,
      "Ġindex": 5555,
      "Ġdecrease": 5556,
      "Ġreference": 5557,
      "Ġamps": 5558,
      "Ġphase": 5559,
      "Ġxr": 5560,
      "Ġurinary": 5561,
      "Ġconception": 5562,
      "Ġallergic": 5563,
      "Ġacqu": 5564,
      "Ġinfected": 5565,
      "Ġmucus": 5566,
      "Ġsheets": 5567,
      "engers": 5568,
      "Ġsteam": 5569,
      "Ġpil": 5570,
      "Ġchemicals": 5571,
      "eed": 5572,
      "Ġbeyond": 5573,
      "Ġmart": 5574,
      "level": 5575,
      "Ġkilomet": 5576,
      "Ġvalence": 5577,
      "Ġepsom": 5578,
      "Ġguit": 5579,
      "Ġadvert": 5580,
      "coun": 5581,
      "Ġtat": 5582,
      "Ġplanet": 5583,
      "aine": 5584,
      "Ġatlant": 5585,
      "Ġpool": 5586,
      "Ġwarrant": 5587,
      "Ġwax": 5588,
      "aped": 5589,
      "Ġfollows": 5590,
      "Ġrewards": 5591,
      "Ġirs": 5592,
      "Ġautomatic": 5593,
      "fatigue": 5594,
      "vs": 5595,
      "Ġpdf": 5596,
      "Ġot": 5597,
      "Ġ64": 5598,
      "Ġpartner": 5599,
      "Ġbowel": 5600,
      "Ġtemporary": 5601,
      "Ġphrase": 5602,
      "Ġions": 5603,
      "âĢľ": 5604,
      "Ġconsole": 5605,
      "Ġarmy": 5606,
      "Ġscheduled": 5607,
      "Ġpays": 5608,
      "Ġmuse": 5609,
      "Ġwonder": 5610,
      "Ġdol": 5611,
      "Ġdragon": 5612,
      "Ġloans": 5613,
      "Ġdissol": 5614,
      "cient": 5615,
      "spot": 5616,
      "Ġarthritis": 5617,
      "âĪ": 5618,
      "illin": 5619,
      "Ġpoll": 5620,
      "Ġmeasures": 5621,
      "Ġwearing": 5622,
      "Ġorganisms": 5623,
      "vant": 5624,
      ");": 5625,
      "Ġcombined": 5626,
      "Ġbanking": 5627,
      "250": 5628,
      "Ġbroadcast": 5629,
      "etime": 5630,
      "Ġdav": 5631,
      "state": 5632,
      "Ġect": 5633,
      "Ġ2014": 5634,
      "Ġexpression": 5635,
      "Ġwithdrawal": 5636,
      "Ġcompar": 5637,
      "airs": 5638,
      "scroll": 5639,
      "Ġeconomic": 5640,
      "Ġdistribution": 5641,
      "ife": 5642,
      "Ġ2000": 5643,
      "Ġrelief": 5644,
      "Ġpurchased": 5645,
      "Ġak": 5646,
      "Ġcentimeters": 5647,
      "ech": 5648,
      "Ġlies": 5649,
      "Ġcircum": 5650,
      "Ġdipl": 5651,
      "mes": 5652,
      "Ġprogress": 5653,
      "Ġheadache": 5654,
      "79": 5655,
      "ril": 5656,
      "uses": 5657,
      "amb": 5658,
      "Ġindicates": 5659,
      "Ġpuppies": 5660,
      "mun": 5661,
      "Ġhiv": 5662,
      "Ġlact": 5663,
      "mal": 5664,
      "Ġcow": 5665,
      "Ġstraw": 5666,
      "Ġnotifications": 5667,
      "Ġinvolved": 5668,
      "oper": 5669,
      "Ġdisorders": 5670,
      "Ġrelax": 5671,
      "Ġconfig": 5672,
      "blo": 5673,
      "Ġrick": 5674,
      "Ġgenes": 5675,
      "Ġsymptom": 5676,
      "ioxid": 5677,
      "this": 5678,
      "Ġtired": 5679,
      "Ġmist": 5680,
      "Ġmamm": 5681,
      "Ġrose": 5682,
      "Ġmembership": 5683,
      "Ġvoltage": 5684,
      "Ġbasketball": 5685,
      "Ġnarr": 5686,
      "Ġroyal": 5687,
      "Ġalumin": 5688,
      "Ġwhit": 5689,
      "Ġbrazil": 5690,
      "Ġmetric": 5691,
      "Ġrestrict": 5692,
      "Ġmixed": 5693,
      "Ġwrap": 5694,
      "Ġrenewal": 5695,
      "Ġrepresents": 5696,
      "Ġhdmi": 5697,
      "Ġbeats": 5698,
      "Ġsemi": 5699,
      "Ġjes": 5700,
      "Ġshoe": 5701,
      "Ġtip": 5702,
      "Ġantibiotic": 5703,
      "flux": 5704,
      "abyte": 5705,
      "icks": 5706,
      "Ġantioxid": 5707,
      "undred": 5708,
      "Ġchanging": 5709,
      "Ġske": 5710,
      "Ġlbs": 5711,
      "Ġrou": 5712,
      "Ġbirthday": 5713,
      "lywood": 5714,
      "Ġdoctors": 5715,
      "Ġcircle": 5716,
      "Ġvoc": 5717,
      "Ġplays": 5718,
      "Ġgran": 5719,
      "Ġnucleus": 5720,
      "date": 5721,
      "Ġcris": 5722,
      "Ġedition": 5723,
      "Ġgeorgia": 5724,
      "Ġgarden": 5725,
      "Ġjelly": 5726,
      "isl": 5727,
      "ded": 5728,
      "Ġfats": 5729,
      "Ġstem": 5730,
      "Ġkeeping": 5731,
      "Ġsenior": 5732,
      "Ġbeautiful": 5733,
      "78": 5734,
      "onia": 5735,
      "Ġcb": 5736,
      "Ġinsect": 5737,
      "Ġguar": 5738,
      "Ġcra": 5739,
      "Ġdeer": 5740,
      "xy": 5741,
      "Ġcheaper": 5742,
      "Ġrecovery": 5743,
      "Ġborder": 5744,
      "Ġtourist": 5745,
      "Ġdvd": 5746,
      "nia": 5747,
      "ashes": 5748,
      "Ġelev": 5749,
      "fix": 5750,
      "Ġcarolina": 5751,
      "rus": 5752,
      "Ġsubscription": 5753,
      "Ġtiny": 5754,
      "azole": 5755,
      "Ġadvance": 5756,
      "Ġko": 5757,
      "Ġassistant": 5758,
      "Ġremoval": 5759,
      "Ġbuying": 5760,
      "Ġpenal": 5761,
      "Ġtong": 5762,
      "Ġxs": 5763,
      "Ġvisible": 5764,
      "Ġincreasing": 5765,
      "Ġsnack": 5766,
      "Ġdecision": 5767,
      "Ġdiseases": 5768,
      "ws": 5769,
      "Ġproduces": 5770,
      "eros": 5771,
      "Ġalkal": 5772,
      "Ġtrave": 5773,
      "Ġretr": 5774,
      "find": 5775,
      "Ġclip": 5776,
      "ertag": 5777,
      "gy": 5778,
      "Ġreflux": 5779,
      "Ġforward": 5780,
      "aint": 5781,
      "Ġsafely": 5782,
      "Ġmeasured": 5783,
      "tel": 5784,
      "Ġdensity": 5785,
      "dden": 5786,
      "Ġgamertag": 5787,
      "Ġmainly": 5788,
      "Ġlaun": 5789,
      "Ġzod": 5790,
      "Ġelectronic": 5791,
      "Ġbasically": 5792,
      "vey": 5793,
      "Ġbecoming": 5794,
      "Ġmiscarriage": 5795,
      "Ġtank": 5796,
      "Ġmembrane": 5797,
      "Ġmouse": 5798,
      "Ġgrass": 5799,
      "Ġdigestion": 5800,
      "run": 5801,
      "Ġstuff": 5802,
      "Ġgenetic": 5803,
      "Ġcake": 5804,
      "bucks": 5805,
      "ilies": 5806,
      "Ġgrain": 5807,
      "Ġawards": 5808,
      "Ġsupplement": 5809,
      "Ġsudden": 5810,
      "Ġdepend": 5811,
      "Ġstrict": 5812,
      "Ġsaturated": 5813,
      "Ġdrama": 5814,
      "Ġga": 5815,
      "oub": 5816,
      "Ġdelic": 5817,
      "Ġkr": 5818,
      "Ġdomin": 5819,
      "Ġalternative": 5820,
      "Ġdev": 5821,
      "Ġzodiac": 5822,
      "Ġsigned": 5823,
      "Ġbaked": 5824,
      "nels": 5825,
      "Ġfear": 5826,
      "Ġinput": 5827,
      "ushing": 5828,
      "anging": 5829,
      "Ġumbre": 5830,
      "Ġsoap": 5831,
      "Ġcalling": 5832,
      "Ġpersonality": 5833,
      "body": 5834,
      "Ġcolumn": 5835,
      "Ġswit": 5836,
      "hel": 5837,
      "Ġthreat": 5838,
      "Ġprec": 5839,
      "thetic": 5840,
      "Ġassign": 5841,
      "Ġidentification": 5842,
      "Ġmethods": 5843,
      "lyn": 5844,
      "Ġscot": 5845,
      "Ġdioxide": 5846,
      "Ġmathe": 5847,
      "Ġmanufacturer": 5848,
      "Ġhcg": 5849,
      "they": 5850,
      "ystem": 5851,
      "Ġahead": 5852,
      "Ġsac": 5853,
      "Ġupset": 5854,
      "Ġspeaker": 5855,
      "Ġfalse": 5856,
      "Ġremaining": 5857,
      "Ġacceler": 5858,
      "%,": 5859,
      "Ġarrow": 5860,
      "Ġfan": 5861,
      "Ġproport": 5862,
      "Ġsurround": 5863,
      "Ġnick": 5864,
      "cd": 5865,
      "Ġvice": 5866,
      "Ġtube": 5867,
      "igan": 5868,
      "Ġbudget": 5869,
      "Ġpine": 5870,
      "Ġdual": 5871,
      "Ġroku": 5872,
      "Ġinhib": 5873,
      "Ġeve": 5874,
      "ËĪ": 5875,
      "Ġwo": 5876,
      "ito": 5877,
      "Ġhundred": 5878,
      "Ġlux": 5879,
      "Ġmixture": 5880,
      "Ġchristian": 5881,
      "Ġingredient": 5882,
      "Ġwatches": 5883,
      "Ġnutritional": 5884,
      "ener": 5885,
      "Ġmessenger": 5886,
      "Ġintegr": 5887,
      "Ġinsulin": 5888,
      "ami": 5889,
      "Ġpeak": 5890,
      "Ġbugs": 5891,
      "ymes": 5892,
      "Ġartific": 5893,
      "ipes": 5894,
      "Ġlouis": 5895,
      "Ġwit": 5896,
      "Ġelim": 5897,
      "Ġreplaced": 5898,
      "Ġcandy": 5899,
      "Ġscientist": 5900,
      "Ġseed": 5901,
      "Ġrent": 5902,
      "Ġultras": 5903,
      "thon": 5904,
      "Ġpartners": 5905,
      "Ġfant": 5906,
      "Ġash": 5907,
      "Ġfacts": 5908,
      "Ġroutine": 5909,
      "vc": 5910,
      "Ġ195": 5911,
      "Ġcomput": 5912,
      "Ġbreasts": 5913,
      "Ġultra": 5914,
      "star": 5915,
      "Ġparalle": 5916,
      "Ġflavors": 5917,
      "Ġtot": 5918,
      "Ġtechnically": 5919,
      "Ġinstrum": 5920,
      "sequ": 5921,
      "Ġbeta": 5922,
      "Ġvolts": 5923,
      "Ġopposite": 5924,
      "Ġirritation": 5925,
      "Ġcourses": 5926,
      "omycin": 5927,
      "Ġrichest": 5928,
      "Ġgases": 5929,
      "Ġgolf": 5930,
      "Ġinstallation": 5931,
      "code": 5932,
      "Ġnail": 5933,
      "Ġtells": 5934,
      "Ġwaste": 5935,
      "Ġblind": 5936,
      "Ġinvent": 5937,
      "Ġforces": 5938,
      "Ġrespiratory": 5939,
      "Ġbladder": 5940,
      "Ġsample": 5941,
      "Ġoat": 5942,
      "Ġdizziness": 5943,
      "Ġselling": 5944,
      "Ġdeveloping": 5945,
      "Ġtraf": 5946,
      "Ġenh": 5947,
      "49": 5948,
      "aft": 5949,
      "Ġlegisl": 5950,
      "Ġdescribe": 5951,
      "Ġconstitution": 5952,
      "Ġprohib": 5953,
      "Ġ39": 5954,
      "Ġamino": 5955,
      "Ġstudio": 5956,
      "wear": 5957,
      "Ġmt": 5958,
      "Ġangeles": 5959,
      "Ġguarant": 5960,
      "mart": 5961,
      "Ġvin": 5962,
      "Ġroof": 5963,
      "Ġshower": 5964,
      "Ġpowers": 5965,
      "Ġpublished": 5966,
      "bert": 5967,
      "Ġconditioner": 5968,
      "Ġdistribut": 5969,
      "Ġcodes": 5970,
      "Ġfiling": 5971,
      "spotting": 5972,
      "dep": 5973,
      "Ġmph": 5974,
      "Ġhind": 5975,
      "Ġplural": 5976,
      "Ġwife": 5977,
      "Ġdiscount": 5978,
      "Ġreactions": 5979,
      "ĠâĪ": 5980,
      "Ġappropriate": 5981,
      "Ġexception": 5982,
      "Ġkitchen": 5983,
      "miss": 5984,
      "wind": 5985,
      "edy": 5986,
      "Ġroast": 5987,
      "Ġsurvive": 5988,
      "Ġpension": 5989,
      "Ġhearing": 5990,
      "Ġclar": 5991,
      "Ġlowest": 5992,
      "Ġtraffic": 5993,
      "-$": 5994,
      "Ġhotel": 5995,
      "Ġpace": 5996,
      "Ġtruck": 5997,
      "Ġ2012": 5998,
      "beat": 5999,
      "Ġturned": 6000,
      "Ġbike": 6001,
      "Ġtatto": 6002,
      "Ġtransfers": 6003,
      "hd": 6004,
      "Ġinterchange": 6005,
      "Ġqualifications": 6006,
      "Ġnigeria": 6007,
      "Ġresistance": 6008,
      "Ġtransaction": 6009,
      "bel": 6010,
      "icillin": 6011,
      "Ġbron": 6012,
      "Ġrecycl": 6013,
      "Ġneutral": 6014,
      "Ġmetabol": 6015,
      "Ġsharing": 6016,
      "Ġnood": 6017,
      "Ġ2013": 6018,
      "des": 6019,
      "Ġht": 6020,
      "Ġtested": 6021,
      "minute": 6022,
      "Ġcous": 6023,
      "Ġbear": 6024,
      "iva": 6025,
      "bow": 6026,
      "Ġnap": 6027,
      "Ġstyles": 6028,
      "erved": 6029,
      "Ġacts": 6030,
      "Ġradiation": 6031,
      "Ġwent": 6032,
      "cour": 6033,
      "Ġultrasound": 6034,
      "vin": 6035,
      "zo": 6036,
      "Ġfashion": 6037,
      "lled": 6038,
      "rial": 6039,
      "Ġva": 6040,
      "Ġswallow": 6041,
      "Ġmidnight": 6042,
      "vest": 6043,
      "Ġpanc": 6044,
      "imb": 6045,
      "things": 6046,
      "Ġlegit": 6047,
      "Ġmachines": 6048,
      "agen": 6049,
      "Ġadop": 6050,
      "Ġwants": 6051,
      "hop": 6052,
      "prote": 6053,
      "block": 6054,
      "Ġcruel": 6055,
      "Ġreflect": 6056,
      "creased": 6057,
      "follow": 6058,
      "67": 6059,
      "Ġboys": 6060,
      "Ġmotion": 6061,
      "Ġgaming": 6062,
      "Ġectopic": 6063,
      "then": 6064,
      "Ġmuslim": 6065,
      "Ġmultiplying": 6066,
      "Ġdan": 6067,
      "Ġchase": 6068,
      "Ġappe": 6069,
      "ollen": 6070,
      "Ġsubstit": 6071,
      "now": 6072,
      "rad": 6073,
      "Ġ2010": 6074,
      "Ġspirit": 6075,
      "Ġstretch": 6076,
      "encies": 6077,
      "Ġhope": 6078,
      "Ġnitrogen": 6079,
      "ÅĤ": 6080,
      "fered": 6081,
      "Ġnavigate": 6082,
      "las": 6083,
      "Ġfell": 6084,
      "Ġproviding": 6085,
      "Ġpee": 6086,
      "Ġreality": 6087,
      "Ġhence": 6088,
      "ores": 6089,
      "Ġtail": 6090,
      "anus": 6091,
      "Ġrace": 6092,
      "Ġdoses": 6093,
      "Ġverbs": 6094,
      "Ġartificial": 6095,
      "05": 6096,
      "Ġjacks": 6097,
      "sters": 6098,
      "Ġconven": 6099,
      "Ġshall": 6100,
      "Ġeconomy": 6101,
      "Ġexamin": 6102,
      "Ġ600": 6103,
      "Ġhousehold": 6104,
      "Ġlg": 6105,
      "Ġhandle": 6106,
      "Ġmanufacturing": 6107,
      "Ġfractions": 6108,
      "Ġchurch": 6109,
      "Ġcoins": 6110,
      "Ġevapor": 6111,
      "Ġassets": 6112,
      "Ġmountains": 6113,
      "asy": 6114,
      "Ġviz": 6115,
      "Ġsharp": 6116,
      "Ġenz": 6117,
      "Ġtold": 6118,
      "Ġassuming": 6119,
      "02": 6120,
      "Ġyogurt": 6121,
      "Ġtowards": 6122,
      "Ġasia": 6123,
      "Ġey": 6124,
      "Ġecho": 6125,
      "Ġleather": 6126,
      "Ġlots": 6127,
      "including": 6128,
      "los": 6129,
      "Ġknee": 6130,
      "Ġsignal": 6131,
      "cuss": 6132,
      "writ": 6133,
      "start": 6134,
      "Ġcheap": 6135,
      "Ġsql": 6136,
      "Ġexcessive": 6137,
      "Ġshoot": 6138,
      "Ġscores": 6139,
      "Ġmuseum": 6140,
      "ita": 6141,
      "ila": 6142,
      "Ġgrant": 6143,
      "Ġthrow": 6144,
      "Ġcentury": 6145,
      "amic": 6146,
      "Ġcategories": 6147,
      "Ġafford": 6148,
      "ĠÂ°": 6149,
      "Ġsynthetic": 6150,
      "Ġvalve": 6151,
      "rams": 6152,
      "estyle": 6153,
      "ieved": 6154,
      "Ġgrown": 6155,
      "gests": 6156,
      "Ġpermitted": 6157,
      "Ġsession": 6158,
      "Ġ95": 6159,
      "Ġhero": 6160,
      "iw": 6161,
      "Ġeaten": 6162,
      "Ġgrey": 6163,
      "Ġgiant": 6164,
      "Ġtongue": 6165,
      "72": 6166,
      "Ġancient": 6167,
      "Ġlung": 6168,
      "Ġshing": 6169,
      "Ġadvent": 6170,
      "Ġsmoke": 6171,
      "nis": 6172,
      "ervation": 6173,
      "Ġconsultant": 6174,
      "road": 6175,
      "Ġ42": 6176,
      "Ġculture": 6177,
      "Ġcryst": 6178,
      "aco": 6179,
      "âĢĿ,": 6180,
      "Ġroman": 6181,
      "han": 6182,
      "Ġnice": 6183,
      "Ġeventually": 6184,
      "Ġadjective": 6185,
      "Ġplates": 6186,
      "Ġscott": 6187,
      "Ġdifferences": 6188,
      "Ġalt": 6189,
      "pher": 6190,
      "Ġlak": 6191,
      "Ġmedicines": 6192,
      "Ġexplorer": 6193,
      "karyotic": 6194,
      "Ġguidel": 6195,
      "Ġwatching": 6196,
      "Ġtone": 6197,
      "Ġpad": 6198,
      "Ġtwitter": 6199,
      "Ġattor": 6200,
      "Ġuti": 6201,
      "Ġmicrowave": 6202,
      "Ġchart": 6203,
      "Ġemp": 6204,
      "Ġaquar": 6205,
      "Ġsecure": 6206,
      "iverse": 6207,
      "green": 6208,
      "Ġformal": 6209,
      "Ġtoile": 6210,
      "Ġray": 6211,
      "Ġraised": 6212,
      "Ġscalp": 6213,
      "infl": 6214,
      "Ġingest": 6215,
      "Ġgem": 6216,
      "neum": 6217,
      "Ġsuggests": 6218,
      "Ġjournal": 6219,
      "Ġshared": 6220,
      "Ġclassified": 6221,
      "Ġitching": 6222,
      "Ġnar": 6223,
      "copy": 6224,
      "Ġwars": 6225,
      "Ġgone": 6226,
      "inois": 6227,
      "Ġvictor": 6228,
      "Ġcontributions": 6229,
      "nat": 6230,
      "Ġhots": 6231,
      "Ġrated": 6232,
      "Ġprison": 6233,
      "Ġsuccessful": 6234,
      "bell": 6235,
      "Ġpresence": 6236,
      "Ġvegetable": 6237,
      "Ġhawaii": 6238,
      "Ġcrown": 6239,
      "Ġplanning": 6240,
      "Ġshares": 6241,
      "yer": 6242,
      "Ġbac": 6243,
      "headache": 6244,
      "Ġdental": 6245,
      "Ġneither": 6246,
      "Ġsaw": 6247,
      "Ġefficient": 6248,
      "Ġfrequent": 6249,
      "Ġacute": 6250,
      "Ġforever": 6251,
      "Ġgrains": 6252,
      "Ġaccident": 6253,
      "ining": 6254,
      "Ġfactory": 6255,
      "Ġdidn": 6256,
      "dog": 6257,
      "Ġchic": 6258,
      "Ġyards": 6259,
      "Ġmovements": 6260,
      "ifies": 6261,
      "Ġcontrace": 6262,
      "Ġholding": 6263,
      "Ġperformed": 6264,
      "Ġmoisture": 6265,
      "Ġionic": 6266,
      "Ġcranberry": 6267,
      "Ġpages": 6268,
      "Ġislam": 6269,
      "del": 6270,
      "eration": 6271,
      "Ġjio": 6272,
      "Ġshorter": 6273,
      "Ġarms": 6274,
      "Ġdirected": 6275,
      "oy": 6276,
      "Ġwilli": 6277,
      "Ġrequirement": 6278,
      "resp": 6279,
      "Ġversions": 6280,
      "Ġhypert": 6281,
      "Ġenzymes": 6282,
      "Ġbite": 6283,
      "Ġchannels": 6284,
      "Ġdistinct": 6285,
      "Ġcameras": 6286,
      "cell": 6287,
      "Ġgrad": 6288,
      "class": 6289,
      "Ġaccom": 6290,
      "Ġshowing": 6291,
      "Ġoperations": 6292,
      "Ġsongs": 6293,
      "Ġsupplements": 6294,
      "47": 6295,
      "Ġmales": 6296,
      "Ġda": 6297,
      "cond": 6298,
      "Ġsurf": 6299,
      "Ġfu": 6300,
      "Ġdye": 6301,
      "Ġbrake": 6302,
      "Ġwarranty": 6303,
      "cred": 6304,
      "Ġts": 6305,
      "Ġfing": 6306,
      "Ġexpir": 6307,
      "Ġallowance": 6308,
      "Ġregardless": 6309,
      "duction": 6310,
      "Ġbloating": 6311,
      "def": 6312,
      "requ": 6313,
      "Ġct": 6314,
      "Ġbin": 6315,
      "Ġanswers": 6316,
      "].": 6317,
      "Ġank": 6318,
      "Ġacidic": 6319,
      "Ġhistor": 6320,
      "Ġtonight": 6321,
      "Ġsociety": 6322,
      "Ġplain": 6323,
      "Ġatomic": 6324,
      "hydration": 6325,
      "Ġfda": 6326,
      "Ġfranch": 6327,
      "Ġdisapp": 6328,
      "Ġ).": 6329,
      "Ġdance": 6330,
      "\")": 6331,
      "Ġbt": 6332,
      "Ġmichigan": 6333,
      "Ġestablished": 6334,
      "85": 6335,
      "size": 6336,
      "Ġmoves": 6337,
      "Ġelectro": 6338,
      "Ġpython": 6339,
      "Ġmood": 6340,
      "Ġuns": 6341,
      "Ġstring": 6342,
      "Ġmission": 6343,
      "Ġsubstances": 6344,
      "vitamin": 6345,
      "Ġbes": 6346,
      "llig": 6347,
      "Ġrand": 6348,
      "Ġcontinuous": 6349,
      "related": 6350,
      "Ġtrigger": 6351,
      "iom": 6352,
      "Ġinher": 6353,
      "Ġrecipe": 6354,
      "Ġnetworks": 6355,
      "iences": 6356,
      "nic": 6357,
      "sen": 6358,
      "Ġbears": 6359,
      "Ġblank": 6360,
      "Ġwaiting": 6361,
      "Ġobtained": 6362,
      "Ġacademy": 6363,
      "ko": 6364,
      "Ġtodd": 6365,
      "Ġloose": 6366,
      "Ġcomplications": 6367,
      "Ġlie": 6368,
      "Ġalert": 6369,
      "ser": 6370,
      "Ġdot": 6371,
      "Ġrepresentatives": 6372,
      "Ġdescribed": 6373,
      "Ġconversion": 6374,
      "wives": 6375,
      "Ġconj": 6376,
      "Ġadequ": 6377,
      "Ġvisual": 6378,
      "Ġbird": 6379,
      "len": 6380,
      "Ġkwh": 6381,
      "Ġsmoking": 6382,
      "Ġdestination": 6383,
      "Ġru": 6384,
      "Ġshots": 6385,
      "Ġdent": 6386,
      "ifts": 6387,
      "Ġallergy": 6388,
      "Ġjeans": 6389,
      "stre": 6390,
      "Ġtwenty": 6391,
      "Ġfreezer": 6392,
      "Ġresolution": 6393,
      "Ġtvs": 6394,
      "Ġtissues": 6395,
      "Ġira": 6396,
      "cycle": 6397,
      "Ġome": 6398,
      "Ġell": 6399,
      "Ġjustice": 6400,
      "Ġmathemat": 6401,
      "Ġfurn": 6402,
      "aming": 6403,
      "Ġneigh": 6404,
      "Ġalle": 6405,
      "Ġuniverse": 6406,
      "Ġattacks": 6407,
      "dem": 6408,
      "Ġwheels": 6409,
      "Ġvizio": 6410,
      "orous": 6411,
      "Ġxl": 6412,
      "Ġlinux": 6413,
      "elle": 6414,
      "orses": 6415,
      "Ġsupports": 6416,
      "Ġclothes": 6417,
      "Ġsight": 6418,
      "Ġchallen": 6419,
      "Ġadmission": 6420,
      "Ġbreaks": 6421,
      "Ġsoluble": 6422,
      "Ġidentify": 6423,
      "calcul": 6424,
      "Ġcarbohydrate": 6425,
      "Ġallergies": 6426,
      "Ġseems": 6427,
      "Ġathlet": 6428,
      "rox": 6429,
      "Ġdirectory": 6430,
      "Ġflying": 6431,
      "Ġbind": 6432,
      "organ": 6433,
      "feeling": 6434,
      "Ġsecondary": 6435,
      "Ġclosing": 6436,
      "Ġdialog": 6437,
      "Ġbund": 6438,
      "Ġoffered": 6439,
      "Ġlighter": 6440,
      "Ġfries": 6441,
      "Ġsyrup": 6442,
      "Ġresulting": 6443,
      "brew": 6444,
      "Ġbc": 6445,
      "Ġasse": 6446,
      "Ġregularly": 6447,
      "anes": 6448,
      "Ġcellular": 6449,
      "Ġviruses": 6450,
      "pet": 6451,
      "Ġspinal": 6452,
      "Ġmissions": 6453,
      "Ġrelieve": 6454,
      "Ġexpire": 6455,
      "cious": 6456,
      "Ġcabin": 6457,
      "Ġpneum": 6458,
      "Ġjim": 6459,
      "Ġweapons": 6460,
      "Ġitalian": 6461,
      "Ġfolic": 6462,
      "gov": 6463,
      "Ġnoodles": 6464,
      "Ġsor": 6465,
      "giving": 6466,
      "Ġmeant": 6467,
      "Ġhomes": 6468,
      "Ġthor": 6469,
      "amel": 6470,
      "Ġkos": 6471,
      "anged": 6472,
      "Ġalexa": 6473,
      "Ġreceiving": 6474,
      "agnetic": 6475,
      "Ġsitu": 6476,
      "izona": 6477,
      "Ġ800": 6478,
      "Ġpresidential": 6479,
      "Ġpreviously": 6480,
      "isf": 6481,
      "Ġprefix": 6482,
      "Ġaffects": 6483,
      "Ġduration": 6484,
      "well": 6485,
      "iana": 6486,
      "Ġalbums": 6487,
      "ãĥ": 6488,
      "Ġcompress": 6489,
      "Ġspl": 6490,
      "Ġdiploma": 6491,
      "sl": 6492,
      "illion": 6493,
      "Ġworldwide": 6494,
      "Ġclothing": 6495,
      "uto": 6496,
      "Ġsaying": 6497,
      "Ġcommunic": 6498,
      "Ġattorney": 6499,
      "Ġdiamond": 6500,
      "Ġstarch": 6501,
      "about": 6502,
      "Ġobvious": 6503,
      "hab": 6504,
      "Ġpak": 6505,
      "wheel": 6506,
      "Ġagents": 6507,
      "iary": 6508,
      "amping": 6509,
      "Ġphilipp": 6510,
      "ette": 6511,
      "Ġmirror": 6512,
      "kel": 6513,
      "acco": 6514,
      "Ġplane": 6515,
      "Ġangle": 6516,
      "Ġcruelty": 6517,
      "Ġscen": 6518,
      "Ġwales": 6519,
      "Ġharry": 6520,
      "Ġnz": 6521,
      "Ġcouples": 6522,
      "Ġaluminum": 6523,
      "apore": 6524,
      "Ġ34": 6525,
      "31": 6526,
      "Ġfields": 6527,
      "Ġequity": 6528,
      "Ġskill": 6529,
      "Ġdecor": 6530,
      "meal": 6531,
      "Ġorders": 6532,
      "eem": 6533,
      "Ġdyn": 6534,
      "Ġnbc": 6535,
      "Ġcoord": 6536,
      "orrow": 6537,
      "Ġadapter": 6538,
      "Ġinject": 6539,
      "Ġford": 6540,
      "Ġgolden": 6541,
      "business": 6542,
      "Ġsending": 6543,
      "Ġgest": 6544,
      "Ġclinical": 6545,
      "tics": 6546,
      "Ġtd": 6547,
      "Ġnom": 6548,
      "Ġchances": 6549,
      "Ġpackages": 6550,
      "Ġabsorb": 6551,
      "file": 6552,
      "iring": 6553,
      "anda": 6554,
      "Ġcitizenship": 6555,
      "Ġtast": 6556,
      "Ġended": 6557,
      "Ġabsolutely": 6558,
      "onds": 6559,
      "Ġups": 6560,
      "Ġquiz": 6561,
      "Ġdependent": 6562,
      "Ġkorea": 6563,
      "__": 6564,
      "Ġextension": 6565,
      "68": 6566,
      "Ġenable": 6567,
      "()": 6568,
      "aska": 6569,
      "Ġgp": 6570,
      "Ġshift": 6571,
      "izer": 6572,
      "Ġjun": 6573,
      "Ġkar": 6574,
      "athy": 6575,
      "Ġwalls": 6576,
      "Ġbb": 6577,
      "Ġiud": 6578,
      "Ġrats": 6579,
      "Ġveloc": 6580,
      "Ġapplying": 6581,
      "best": 6582,
      "Ġtear": 6583,
      "Ġfest": 6584,
      "Ġworry": 6585,
      "Ġcontamin": 6586,
      "owse": 6587,
      "Ġrin": 6588,
      "umes": 6589,
      "Ġsurn": 6590,
      "Ġcure": 6591,
      "loe": 6592,
      "Ġresidents": 6593,
      "Ġuseful": 6594,
      "Ġmineral": 6595,
      "Ġcities": 6596,
      "Ġdos": 6597,
      "Ġregions": 6598,
      "Ġregister": 6599,
      "Ġvirtual": 6600,
      "Ġcommission": 6601,
      "Ġgmail": 6602,
      "Ġmentioned": 6603,
      "Ġhur": 6604,
      "Ġhill": 6605,
      "Ġjoe": 6606,
      "Ġmun": 6607,
      "Ġdirector": 6608,
      "Ġhousewives": 6609,
      "Ġnh": 6610,
      "Ġgon": 6611,
      "phal": 6612,
      "Ġsubmit": 6613,
      "Ġspecialist": 6614,
      "Ġfemales": 6615,
      "Ġbaseball": 6616,
      "Ġpreferred": 6617,
      "adium": 6618,
      "Ġmanual": 6619,
      "Ġ160": 6620,
      "Ġfold": 6621,
      "Ġshad": 6622,
      "week": 6623,
      "Ġillinois": 6624,
      "Ġrestaurants": 6625,
      "Ġglue": 6626,
      "onda": 6627,
      "omas": 6628,
      "ership": 6629,
      "Ġworked": 6630,
      "Ġcoin": 6631,
      "Ġmars": 6632,
      "Ġsweat": 6633,
      "Ġviet": 6634,
      "Ġadministrator": 6635,
      "ection": 6636,
      "Ġlimits": 6637,
      "04": 6638,
      "Ġfried": 6639,
      "Ġexempt": 6640,
      "Ġshingles": 6641,
      "Ġjur": 6642,
      "Ġdrain": 6643,
      "power": 6644,
      "Ġwave": 6645,
      "Ġlenses": 6646,
      "ried": 6647,
      "bec": 6648,
      "Ġemotional": 6649,
      "icated": 6650,
      "Ġrays": 6651,
      "Ġ49": 6652,
      "Ġdescription": 6653,
      "ypt": 6654,
      "Ġpepper": 6655,
      "aneous": 6656,
      "Ġaa": 6657,
      "Ġurination": 6658,
      "Ġexpand": 6659,
      "Ġhuge": 6660,
      "friendly": 6661,
      "Ġentertain": 6662,
      "Ġbrew": 6663,
      "Ġsubscrib": 6664,
      "bour": 6665,
      "icip": 6666,
      "Ġelection": 6667,
      "install": 6668,
      "Ġmacbook": 6669,
      "Ġscreenshot": 6670,
      "Ġ~": 6671,
      "Ġwages": 6672,
      "Ġjane": 6673,
      "Ġextended": 6674,
      "Ġbelly": 6675,
      "Ġegypt": 6676,
      "Ġofficers": 6677,
      "Ġctr": 6678,
      "rob": 6679,
      "uls": 6680,
      "Ġwings": 6681,
      "nson": 6682,
      "Ġ<": 6683,
      "Ġtbs": 6684,
      "Ġrarely": 6685,
      "ret": 6686,
      "Ġvelocity": 6687,
      "Ġtrop": 6688,
      "Ġpuff": 6689,
      "Ġhip": 6690,
      "Ġreverse": 6691,
      "Ġplaystation": 6692,
      "Ġheartbeat": 6693,
      "Ġdubai": 6694,
      "hum": 6695,
      "Ġchip": 6696,
      "agers": 6697,
      "Ġmarketing": 6698,
      "Ġpotentially": 6699,
      "search": 6700,
      "host": 6701,
      "Ġbodies": 6702,
      "Ġeaster": 6703,
      "Ġrubber": 6704,
      "Ġcigarettes": 6705,
      "Ġsync": 6706,
      "Ġfairly": 6707,
      "Ġcu": 6708,
      "Ġscor": 6709,
      "Ġdiscomfort": 6710,
      "Ġactress": 6711,
      "Ġevening": 6712,
      "Ġviewed": 6713,
      "Ġinvolves": 6714,
      "foot": 6715,
      "Ġspectrum": 6716,
      "squ": 6717,
      "Ġnoise": 6718,
      "Ġdigit": 6719,
      "à¤": 6720,
      "Ġaired": 6721,
      "Ġspark": 6722,
      "Ġkeeps": 6723,
      "Ġwaist": 6724,
      "Ġmetabolism": 6725,
      "Ġspain": 6726,
      "Ġ85": 6727,
      "Ġcorporation": 6728,
      "Ġjesus": 6729,
      "rid": 6730,
      "Ġcans": 6731,
      "social": 6732,
      "Ġspent": 6733,
      "Ġresid": 6734,
      "Ġdividing": 6735,
      "Ġarticle": 6736,
      "don": 6737,
      "rooms": 6738,
      "Ġtournam": 6739,
      "Ġquantity": 6740,
      "Ġnasal": 6741,
      "ask": 6742,
      "cury": 6743,
      "Ġmulti": 6744,
      "Ġstimul": 6745,
      "Ġbumps": 6746,
      "Ġimess": 6747,
      "Ġpeas": 6748,
      "Ġpossess": 6749,
      "Ġitchy": 6750,
      "Ġsad": 6751,
      "Ġcomposition": 6752,
      "rier": 6753,
      "may": 6754,
      "aws": 6755,
      "Ġliquids": 6756,
      "Ġbeauty": 6757,
      "Ġpads": 6758,
      "tered": 6759,
      "aka": 6760,
      "Ġgeneric": 6761,
      "Ġdesc": 6762,
      "Ġintellig": 6763,
      "cup": 6764,
      "pection": 6765,
      "Ġknives": 6766,
      "Ġfoundation": 6767,
      "6666": 6768,
      "Ġdust": 6769,
      "Ġster": 6770,
      "Ġcarb": 6771,
      "Ġbackups": 6772,
      "Ġcircuit": 6773,
      "eties": 6774,
      "Ġusd": 6775,
      "Ġshepher": 6776,
      "Ġperiodic": 6777,
      "Ġhtt": 6778,
      "iotic": 6779,
      "Ġhotspot": 6780,
      "Ġhorses": 6781,
      "Ġquit": 6782,
      "Ġswollen": 6783,
      "Ġcontrolled": 6784,
      "Ġrecognized": 6785,
      "Ġnike": 6786,
      "Ġvegetarian": 6787,
      "Ġfertility": 6788,
      "Ġhabit": 6789,
      "vy": 6790,
      "Ġbats": 6791,
      "isk": 6792,
      "iment": 6793,
      "raz": 6794,
      "Ġattention": 6795,
      "Ġchicago": 6796,
      "Ġctrl": 6797,
      "Ġclimate": 6798,
      "Ġrod": 6799,
      "Ġincor": 6800,
      "Ġfounded": 6801,
      "Ġcher": 6802,
      "Ġcontainers": 6803,
      "Ġflowers": 6804,
      "Ġpeppers": 6805,
      "bage": 6806,
      "Ġcanon": 6807,
      "orial": 6808,
      "osh": 6809,
      "vania": 6810,
      "Ġbills": 6811,
      "edit": 6812,
      "Ġpolitical": 6813,
      "Ġinfin": 6814,
      "Ġconsumer": 6815,
      "Ġanalysis": 6816,
      "Ġrectang": 6817,
      "Ġrouter": 6818,
      "function": 6819,
      "Ġshouldn": 6820,
      "Ġwarf": 6821,
      "Ġcoat": 6822,
      "Ġvolcan": 6823,
      "vo": 6824,
      "Ġnovel": 6825,
      "Ġposts": 6826,
      "Ġagreement": 6827,
      "Ġ2011": 6828,
      "Ġgeorge": 6829,
      "024": 6830,
      "ques": 6831,
      "safe": 6832,
      "cha": 6833,
      "lower": 6834,
      "Ġbrook": 6835,
      "Ġshock": 6836,
      "Ġbump": 6837,
      "esh": 6838,
      "Ġmcd": 6839,
      "Ġabdomen": 6840,
      "inflamm": 6841,
      "Ġgrades": 6842,
      "Ġtwel": 6843,
      "Ġwinner": 6844,
      "Ġsandw": 6845,
      "win": 6846,
      "coming": 6847,
      "Ġarabic": 6848,
      "uration": 6849,
      "hers": 6850,
      "commun": 6851,
      "Ġchapter": 6852,
      "64": 6853,
      "bro": 6854,
      "era": 6855,
      "Ġshops": 6856,
      "Ġgene": 6857,
      "Ġsites": 6858,
      "pain": 6859,
      "Ġdisk": 6860,
      "Ġfeelings": 6861,
      "counter": 6862,
      "Ġsurname": 6863,
      "icing": 6864,
      "Ġdepth": 6865,
      "Ġglands": 6866,
      "Ġedible": 6867,
      "Ġstanding": 6868,
      "Ġclock": 6869,
      "benz": 6870,
      "Ġbub": 6871,
      "stick": 6872,
      "rupt": 6873,
      "Ġald": 6874,
      "Ġsciences": 6875,
      "Ġthousand": 6876,
      "Ġeveryday": 6877,
      "Ġthread": 6878,
      "arent": 6879,
      "Ġ66": 6880,
      "Ġfilled": 6881,
      "Ġcolorado": 6882,
      "ficiency": 6883,
      "Ġhyp": 6884,
      "Ġdenomin": 6885,
      "vid": 6886,
      "Ġarizona": 6887,
      "Ġinfluen": 6888,
      "imm": 6889,
      "Ġfires": 6890,
      "uted": 6891,
      "lob": 6892,
      "loss": 6893,
      "Ġcompression": 6894,
      "Ġplanets": 6895,
      "Ġtexture": 6896,
      "Ġrussia": 6897,
      "eper": 6898,
      "heart": 6899,
      "Ġbought": 6900,
      "Ġamericans": 6901,
      "ĠÂ½": 6902,
      "Ġbreakfast": 6903,
      "Ġtel": 6904,
      "lement": 6905,
      "enders": 6906,
      "Ġfreeze": 6907,
      "Ġconsumed": 6908,
      "Ġcouncil": 6909,
      "Ġadequate": 6910,
      "oft": 6911,
      "Ġstamp": 6912,
      "Ġweekend": 6913,
      "kins": 6914,
      "Ġstain": 6915,
      "Ġtrouble": 6916,
      "Ġguitar": 6917,
      "Ġign": 6918,
      "Ġimper": 6919,
      "Ġforest": 6920,
      "Ġmercury": 6921,
      "Ġoccasionally": 6922,
      "oted": 6923,
      "Ġfoam": 6924,
      "Ġstarbucks": 6925,
      "Ġinspection": 6926,
      "Ġoffices": 6927,
      "cooked": 6928,
      "Ġlice": 6929,
      "Ġbob": 6930,
      "caa": 6931,
      "pi": 6932,
      "Ġtox": 6933,
      "Ġgta": 6934,
      "Ġkansas": 6935,
      "Ġcourts": 6936,
      "Ġguns": 6937,
      "Ġribs": 6938,
      "Ġveterans": 6939,
      "Ġpattern": 6940,
      "Ġdivid": 6941,
      "Ġflags": 6942,
      "dizziness": 6943,
      "Ġwww": 6944,
      "Ġchecked": 6945,
      "Ġviewers": 6946,
      "Ġjohnson": 6947,
      "Ġcarrier": 6948,
      "Ġomega": 6949,
      "wd": 6950,
      "Ġleads": 6951,
      "Ġholders": 6952,
      "non": 6953,
      "Ġworn": 6954,
      "Ġindig": 6955,
      "Ġboxes": 6956,
      "41": 6957,
      "lb": 6958,
      "isco": 6959,
      "Ġspeech": 6960,
      "Ġpersist": 6961,
      "Ġsheep": 6962,
      "Ġexpired": 6963,
      "Ġviral": 6964,
      "Ġslower": 6965,
      "Ġexclusive": 6966,
      "Ġbelief": 6967,
      "Ġconsuming": 6968,
      "Ġrinse": 6969,
      "fall": 6970,
      "Ġtam": 6971,
      "stone": 6972,
      "Ġtruth": 6973,
      "cor": 6974,
      "onic": 6975,
      "Ġjet": 6976,
      "Ġtransform": 6977,
      "ika": 6978,
      "ua": 6979,
      "tones": 6980,
      "Ġstatements": 6981,
      "Ġoperate": 6982,
      "Ġdestiny": 6983,
      "Ġreducing": 6984,
      "Ġvaccines": 6985,
      "common": 6986,
      "Ġtask": 6987,
      "Ġkong": 6988,
      "Ġallig": 6989,
      "Ġattached": 6990,
      "Ġfamilies": 6991,
      "Ġwalmart": 6992,
      "Ġsony": 6993,
      "made": 6994,
      "itivity": 6995,
      "Ġtreatments": 6996,
      "two": 6997,
      "Ġauthority": 6998,
      "Ġlift": 6999,
      "Ġmoved": 7000,
      "Ġarrival": 7001,
      "03": 7002,
      "Ġlob": 7003,
      "Ġtransactions": 7004,
      "Ġgland": 7005,
      "Ġfuller": 7006,
      "Ġultimate": 7007,
      "iers": 7008,
      "Ġwelc": 7009,
      "Ġfeat": 7010,
      "Ġwelcome": 7011,
      "ighth": 7012,
      "try": 7013,
      "Ġaches": 7014,
      "Ġfitness": 7015,
      "Ġdelay": 7016,
      "Ġbun": 7017,
      "uries": 7018,
      "Ġupgrade": 7019,
      "Ġvacu": 7020,
      "Ġovulate": 7021,
      "Ġfranchise": 7022,
      "romycin": 7023,
      "Ġanemia": 7024,
      "Ġcapt": 7025,
      "Ġcancelled": 7026,
      "89": 7027,
      "Ġmigr": 7028,
      "Ġlee": 7029,
      "Ġairtel": 7030,
      "ylvania": 7031,
      "Ġgy": 7032,
      "Ġrocks": 7033,
      "edia": 7034,
      "Ġstories": 7035,
      "Ġstadium": 7036,
      "umber": 7037,
      "Ġug": 7038,
      "Ġcardio": 7039,
      "Ġintended": 7040,
      "Ġaware": 7041,
      "Ġmeasuring": 7042,
      "Ġpalm": 7043,
      "Ġberries": 7044,
      "ims": 7045,
      "anas": 7046,
      "lymp": 7047,
      "Ġplayoff": 7048,
      "Ġdavid": 7049,
      "osen": 7050,
      "Ġloving": 7051,
      "Ġsituation": 7052,
      "break": 7053,
      "Ġmorty": 7054,
      "Ġebay": 7055,
      "rain": 7056,
      "Ġipod": 7057,
      "Ġfacilities": 7058,
      "Ġhorizon": 7059,
      "Ġalmonds": 7060,
      "Ġhay": 7061,
      "omer": 7062,
      "Ġkel": 7063,
      "Ġselection": 7064,
      "Ġvalley": 7065,
      "Ġurl": 7066,
      "Ġwy": 7067,
      "Ġlef": 7068,
      "Ġxp": 7069,
      "Ġindepend": 7070,
      "Ġsuffer": 7071,
      "59": 7072,
      "Ġ2021": 7073,
      "Ġestrogen": 7074,
      "mail": 7075,
      "Ġvul": 7076,
      "Ġlid": 7077,
      "hoe": 7078,
      "Ġcramping": 7079,
      "Ġ125": 7080,
      "Ġexc": 7081,
      "Ġ350": 7082,
      "Ġteen": 7083,
      "Ġcarn": 7084,
      "Ġeval": 7085,
      "Ġpenns": 7086,
      "Ġnations": 7087,
      "acle": 7088,
      "Ġboston": 7089,
      "Ġcompetition": 7090,
      "Ġcirculation": 7091,
      "120": 7092,
      "elect": 7093,
      "conf": 7094,
      "Ġprotons": 7095,
      "Ġboss": 7096,
      "account": 7097,
      "Ġtriangle": 7098,
      "Ġlicensed": 7099,
      "Ġtob": 7100,
      "Ġtoll": 7101,
      "Ġassume": 7102,
      "Ġfinance": 7103,
      "Ġbleed": 7104,
      "Ġnavy": 7105,
      "Ġconceive": 7106,
      "Ġlocked": 7107,
      ":',": 7108,
      "Ġ@": 7109,
      "Ġcer": 7110,
      "Ġwider": 7111,
      "Ġstrateg": 7112,
      "Ġskele": 7113,
      "Ġrail": 7114,
      "Ġcham": 7115,
      "Ġarts": 7116,
      "Ġconverted": 7117,
      "âĪĴ": 7118,
      "Ġuv": 7119,
      "Ġhourly": 7120,
      "settings": 7121,
      "Ġpigs": 7122,
      "Ġsant": 7123,
      "Ġconclud": 7124,
      "Ġacre": 7125,
      "Ġswipe": 7126,
      "Ġshopping": 7127,
      "Ġchemistry": 7128,
      "Ġokay": 7129,
      "Ġgastro": 7130,
      "gment": 7131,
      "sd": 7132,
      "tons": 7133,
      "rene": 7134,
      "Ġweapon": 7135,
      "Ġpairing": 7136,
      "Ġhimself": 7137,
      "inine": 7138,
      "Ġger": 7139,
      "otine": 7140,
      "Ġcolumb": 7141,
      "Ġdietary": 7142,
      "Ġinsects": 7143,
      "och": 7144,
      "si": 7145,
      "Ġ($": 7146,
      "Ġtyre": 7147,
      "Ġavatar": 7148,
      "Ġverizon": 7149,
      "complete": 7150,
      "Ġky": 7151,
      "Ġpeace": 7152,
      "Ġsmith": 7153,
      "Ġengage": 7154,
      "Ġslang": 7155,
      "Ġrefrigerate": 7156,
      "Ġpsychologist": 7157,
      "Ġpennsylvania": 7158,
      "ico": 7159,
      "Ġnj": 7160,
      "Ġjr": 7161,
      "Ġroles": 7162,
      "Ġdisplayed": 7163,
      "Ġyoga": 7164,
      "eled": 7165,
      "Ġrif": 7166,
      "Ġharder": 7167,
      "Ġfireworks": 7168,
      "Ġthinking": 7169,
      "Ġmcdonal": 7170,
      "Ġsir": 7171,
      "Ġacron": 7172,
      "Ġbreeds": 7173,
      "ĠÎ": 7174,
      "asant": 7175,
      "enth": 7176,
      "Ġsignificantly": 7177,
      "nie": 7178,
      "Ġmice": 7179,
      "abilities": 7180,
      "Ġfranc": 7181,
      "Ġabnormal": 7182,
      "Ġdiscontin": 7183,
      "Ġdownloads": 7184,
      "Ġirr": 7185,
      "Ġcontractions": 7186,
      "Ġfah": 7187,
      "imp": 7188,
      "Ġwhate": 7189,
      "Ġproto": 7190,
      "Ġcoke": 7191,
      "Ġsinus": 7192,
      "Ġtomatoes": 7193,
      "digit": 7194,
      "Ġwhatever": 7195,
      "mult": 7196,
      "ona": 7197,
      "hyth": 7198,
      "Ġstructures": 7199,
      "Ġfrag": 7200,
      "Ġtrash": 7201,
      "Ġheartburn": 7202,
      "Ġbonus": 7203,
      "Ġnone": 7204,
      "Ġeld": 7205,
      "books": 7206,
      "Ġepic": 7207,
      "Ġfinished": 7208,
      "Ġespn": 7209,
      "Ġconverting": 7210,
      "Ġsensation": 7211,
      "Ġhonor": 7212,
      "Ġtips": 7213,
      "Ġgains": 7214,
      "Ġoperation": 7215,
      "Ġlefto": 7216,
      "sq": 7217,
      "Ġlith": 7218,
      "idden": 7219,
      "Ġwisdom": 7220,
      "Ġalpha": 7221,
      "Ġantioxidants": 7222,
      "cf": 7223,
      "ander": 7224,
      "ancer": 7225,
      "Ġcontrollers": 7226,
      "Ġterminal": 7227,
      "Ġcorresp": 7228,
      "Ġvaccinations": 7229,
      "Ġcod": 7230,
      "Ġgt": 7231,
      "Ġhelping": 7232,
      "Ġkinds": 7233,
      "Ġjewish": 7234,
      "bic": 7235,
      "ng": 7236,
      "Ġonion": 7237,
      "Ġrum": 7238,
      "Ġmyth": 7239,
      "Ġremoving": 7240,
      "Ġstrictly": 7241,
      "bean": 7242,
      "Ġcontribute": 7243,
      "Ġlaunched": 7244,
      "Ġpod": 7245,
      "Ġross": 7246,
      "//": 7247,
      "reci": 7248,
      "Ġhardware": 7249,
      "Ġcloser": 7250,
      "Ġfertile": 7251,
      "Ġscientific": 7252,
      "hist": 7253,
      "ju": 7254,
      "Ġwatt": 7255,
      "leep": 7256,
      "iph": 7257,
      "Ġunlikely": 7258,
      "Ġcav": 7259,
      "Ġolymp": 7260,
      "Ġclicking": 7261,
      "Ġhollywood": 7262,
      "Ġessentially": 7263,
      "Ġemployers": 7264,
      "Ġtalking": 7265,
      "Ġconcentration": 7266,
      "Ġguidelines": 7267,
      "pg": 7268,
      "Ġhebrew": 7269,
      "iber": 7270,
      "plus": 7271,
      "Ġvariables": 7272,
      "Ġdelicious": 7273,
      "heit": 7274,
      "Ġdefe": 7275,
      "Ġrelative": 7276,
      "Ġcontinues": 7277,
      "nessee": 7278,
      "Ġpharmac": 7279,
      "Ġadvantage": 7280,
      "rom": 7281,
      "Ġnest": 7282,
      "Ġlabour": 7283,
      "Ġupdated": 7284,
      "iaz": 7285,
      "Ġvegas": 7286,
      "chem": 7287,
      "Ġpatterns": 7288,
      "Ġtes": 7289,
      "Ġnerves": 7290,
      "namon": 7291,
      "Ġdoors": 7292,
      "tery": 7293,
      "Ġfrank": 7294,
      "Ġcrust": 7295,
      "ossible": 7296,
      "Ġvinyl": 7297,
      "Ġintr": 7298,
      "Ġjumping": 7299,
      "Ġabbreviation": 7300,
      "Ġassemb": 7301,
      "Ġfake": 7302,
      "Ġgut": 7303,
      "otherap": 7304,
      "Ġhypot": 7305,
      "Ġrespectively": 7306,
      "Ġpacific": 7307,
      "layer": 7308,
      "Ġsugars": 7309,
      "Ġesc": 7310,
      "Ġcreating": 7311,
      "Ġfaith": 7312,
      "Ġmilliliters": 7313,
      "uv": 7314,
      "Ġnoon": 7315,
      "Ġsomewhere": 7316,
      "Ġowns": 7317,
      "62": 7318,
      "Ġni": 7319,
      "Ġpoop": 7320,
      "Ġsatisf": 7321,
      "tense": 7322,
      "Ġprocesses": 7323,
      "Ġrespond": 7324,
      "Ġtechnician": 7325,
      "Ġrefrigerated": 7326,
      "Ġacademic": 7327,
      "Ġrational": 7328,
      "ucky": 7329,
      "Ġmolecular": 7330,
      "valent": 7331,
      "got": 7332,
      "hr": 7333,
      "Ġengines": 7334,
      "Ġassist": 7335,
      "Ġjul": 7336,
      "Ġcontest": 7337,
      "Ġsort": 7338,
      "Ġordered": 7339,
      "Ġextr": 7340,
      "Ġcoach": 7341,
      "irect": 7342,
      "Ġshel": 7343,
      "Ġspeakers": 7344,
      "Ġcontrols": 7345,
      "Ġleader": 7346,
      "Ġpacked": 7347,
      "Ġportal": 7348,
      "Ġarrange": 7349,
      "Ġtennessee": 7350,
      "Ġodor": 7351,
      "Ġhousing": 7352,
      "Ġhg": 7353,
      "Ġvarieties": 7354,
      "lab": 7355,
      "Ġdoub": 7356,
      "Ġbritain": 7357,
      "Ġlaser": 7358,
      "Ġderm": 7359,
      "Ġgab": 7360,
      "lying": 7361,
      "Ġdamaged": 7362,
      "Ġmatches": 7363,
      "Ġclient": 7364,
      "good": 7365,
      "iblings": 7366,
      "Ġhypertension": 7367,
      "42": 7368,
      "Ġbum": 7369,
      "ifier": 7370,
      "renheit": 7371,
      "Ġdiffer": 7372,
      "personal": 7373,
      "Ġtasks": 7374,
      "43": 7375,
      "rays": 7376,
      "Ġdemon": 7377,
      "Ġbrooklyn": 7378,
      "Ġscratch": 7379,
      "Ġgraphics": 7380,
      "Ġappli": 7381,
      "Ġulcers": 7382,
      "Ġaverages": 7383,
      "Ġbits": 7384,
      "llular": 7385,
      "Ġformation": 7386,
      "Ġinstance": 7387,
      "Ġfedex": 7388,
      "Ġstatistics": 7389,
      "Ġtournament": 7390,
      "\"]": 7391,
      "Ġpi": 7392,
      "Ġlips": 7393,
      "Ġconclus": 7394,
      "asses": 7395,
      "Ġmush": 7396,
      "print": 7397,
      "Ġburger": 7398,
      "Ġnarrow": 7399,
      "abama": 7400,
      "iform": 7401,
      "Ġroute": 7402,
      "Ġfm": 7403,
      "Ġgpa": 7404,
      "Ġallowing": 7405,
      "person": 7406,
      ").']": 7407,
      "pack": 7408,
      "Ġtou": 7409,
      "mob": 7410,
      "Ġseeing": 7411,
      "Ġoatmeal": 7412,
      "arians": 7413,
      "Ġtbsp": 7414,
      "rations": 7415,
      "Ġure": 7416,
      "Ġgym": 7417,
      ".\"',": 7418,
      "Ġattempt": 7419,
      "abytes": 7420,
      "Ġbang": 7421,
      "Ġperm": 7422,
      "phil": 7423,
      "Ġsurge": 7424,
      "Ġvagina": 7425,
      "Ġreviews": 7426,
      "Ġprogramming": 7427,
      "home": 7428,
      "iance": 7429,
      "mobile": 7430,
      "Ġpossibly": 7431,
      "Ġelectrom": 7432,
      "Ġrelationships": 7433,
      "lights": 7434,
      "Ġ76": 7435,
      "Ġpassenger": 7436,
      "Ġbeneficial": 7437,
      "tz": 7438,
      "Ġah": 7439,
      "aya": 7440,
      "izard": 7441,
      "Ġmonitors": 7442,
      "Ġredd": 7443,
      "Ġcomponent": 7444,
      "Ġrandom": 7445,
      "Ġusps": 7446,
      "Ġexit": 7447,
      "Ġshr": 7448,
      "eline": 7449,
      "Ġcompens": 7450,
      "market": 7451,
      "Ġimpossible": 7452,
      "Ġheavier": 7453,
      "sync": 7454,
      "Ġil": 7455,
      "Ġtoward": 7456,
      "Ġamb": 7457,
      "Ġrecorded": 7458,
      "Ġthanksgiving": 7459,
      "Ġfahrenheit": 7460,
      "Ġveins": 7461,
      "Ġnicotine": 7462,
      "Ġolive": 7463,
      "ees": 7464,
      "Ġaj": 7465,
      "Ġsingular": 7466,
      "Ġverte": 7467,
      "Ġvictoria": 7468,
      "Ġquizlet": 7469,
      ")\",": 7470,
      "Ġbridge": 7471,
      "Ġsust": 7472,
      "ala": 7473,
      "uma": 7474,
      "Ġprepar": 7475,
      "Ġlinear": 7476,
      "Ġpatri": 7477,
      "eg": 7478,
      "Ġoste": 7479,
      "isa": 7480,
      "Ġrhe": 7481,
      "Ġcongest": 7482,
      "Ġdehydration": 7483,
      "iper": 7484,
      "Ġ401": 7485,
      "Ġvodka": 7486,
      "Ġscotland": 7487,
      "700": 7488,
      "Ġdup": 7489,
      "Ġtheme": 7490,
      "Ġcapable": 7491,
      "Ġhealing": 7492,
      "Ġpenalty": 7493,
      "Ġpneumonia": 7494,
      "div": 7495,
      "ÉĻ": 7496,
      "71": 7497,
      "last": 7498,
      "Ġtubes": 7499,
      "Ġinstitute": 7500,
      "increased": 7501,
      "Ġinterchangeable": 7502,
      "xx": 7503,
      "Ġanat": 7504,
      "Ġsole": 7505,
      "Ġopin": 7506,
      "ifying": 7507,
      "Ġoy": 7508,
      "Ġextend": 7509,
      "Ġacronym": 7510,
      "Â·": 7511,
      "Ġconsumers": 7512,
      "diarrhea": 7513,
      "Ġunlocked": 7514,
      "Ġcervical": 7515,
      "ec": 7516,
      "een": 7517,
      "Ġsar": 7518,
      "Ġdar": 7519,
      "flu": 7520,
      "cert": 7521,
      "km": 7522,
      "ni": 7523,
      "Ġmd": 7524,
      "acin": 7525,
      "Ġindeed": 7526,
      "Ġfilms": 7527,
      "Ġcertification": 7528,
      "Ġacceleration": 7529,
      "sn": 7530,
      "orus": 7531,
      "Ġcanned": 7532,
      "Ġdefect": 7533,
      "Ġchampionships": 7534,
      "Ġtoilet": 7535,
      "odge": 7536,
      "Ġseal": 7537,
      "Ġpaul": 7538,
      "Ġjudge": 7539,
      "Ġshiny": 7540,
      "blue": 7541,
      "Ġterritory": 7542,
      "ishes": 7543,
      "ricult": 7544,
      "Ġoptim": 7545,
      "Ġtrading": 7546,
      "ocy": 7547,
      "Ġjam": 7548,
      "Ġgramm": 7549,
      "ials": 7550,
      "Ġrabies": 7551,
      "Ġentertainment": 7552,
      "hent": 7553,
      "Ġexists": 7554,
      "Ġzones": 7555,
      "lication": 7556,
      "Ġcycles": 7557,
      "ogenic": 7558,
      "erts": 7559,
      "ionate": 7560,
      "keep": 7561,
      "Ġslowly": 7562,
      "Ġfifa": 7563,
      "blood": 7564,
      "some": 7565,
      "Ġku": 7566,
      "Ġinfants": 7567,
      "Ġvertical": 7568,
      "Ġhub": 7569,
      "Ġhonda": 7570,
      "Ġreturned": 7571,
      "Ġreplacing": 7572,
      "Ġimmun": 7573,
      "://": 7574,
      "Ġwarfare": 7575,
      "bits": 7576,
      "Ġandre": 7577,
      "Ġodd": 7578,
      "apped": 7579,
      "Ġsixth": 7580,
      "Ġzoo": 7581,
      "Ġoxid": 7582,
      "muscle": 7583,
      "corn": 7584,
      "mr": 7585,
      "Ġww": 7586,
      "teen": 7587,
      "Ġstrep": 7588,
      "Ġfacility": 7589,
      "Ġappointment": 7590,
      "Ġelectromagnetic": 7591,
      "ãĤ": 7592,
      "Ġpint": 7593,
      "const": 7594,
      "graduate": 7595,
      "Ġfeels": 7596,
      "Ġrecipient": 7597,
      "Ġsiblings": 7598,
      "isp": 7599,
      "Ġmarvel": 7600,
      "Ġadds": 7601,
      "Ġdifficulty": 7602,
      "consin": 7603,
      "Ġresearchers": 7604,
      "igration": 7605,
      "osing": 7606,
      "Ġrecept": 7607,
      "Ġassociate": 7608,
      "Ġdestroy": 7609,
      "Ġevolution": 7610,
      "Ġaxis": 7611,
      "Ġdurable": 7612,
      "Ġaffordable": 7613,
      "igo": 7614,
      "Ġbiology": 7615,
      "Ġore": 7616,
      "Ġstays": 7617,
      "Ġ750": 7618,
      "Ġending": 7619,
      "Ġhusband": 7620,
      "Ġsap": 7621,
      "Ġmall": 7622,
      "Ġhaven": 7623,
      "Ġexposed": 7624,
      "Ġparks": 7625,
      "Ġtemp": 7626,
      "Ġhunting": 7627,
      "Ġcomputers": 7628,
      "Ġbeverages": 7629,
      "Ġdeck": 7630,
      "Ġapplies": 7631,
      "Ġark": 7632,
      "Ġprin": 7633,
      "Ġmaryland": 7634,
      "Ġphilippines": 7635,
      "Ġsurvey": 7636,
      "Ġtraveling": 7637,
      "54": 7638,
      "Ġtraditionally": 7639,
      "Ġwitness": 7640,
      "Ġwins": 7641,
      "ophy": 7642,
      "kings": 7643,
      "Ġfolate": 7644,
      "going": 7645,
      "Ġcycl": 7646,
      "Ġhybr": 7647,
      "Ġ'#": 7648,
      "angers": 7649,
      "Ġlocate": 7650,
      "call": 7651,
      "Ġtie": 7652,
      "Ġkilograms": 7653,
      "Ġbases": 7654,
      "Ġstorm": 7655,
      "ira": 7656,
      "Ġkent": 7657,
      "Ġtape": 7658,
      "Ġhelpful": 7659,
      "Ġsickness": 7660,
      "cos": 7661,
      "rons": 7662,
      "Ġbh": 7663,
      "isions": 7664,
      "Ġammon": 7665,
      "Ġpresidents": 7666,
      "Ġalkaline": 7667,
      "Ġretrieve": 7668,
      "fu": 7669,
      "Ġleak": 7670,
      "2019": 7671,
      "Ġparis": 7672,
      "Ġlosing": 7673,
      "Ġprepared": 7674,
      "--": 7675,
      "52": 7676,
      "Ġale": 7677,
      "Ġsenate": 7678,
      "Ġbio": 7679,
      "words": 7680,
      "Ġpromot": 7681,
      "worth": 7682,
      "Ġenvironmental": 7683,
      "Ġwisconsin": 7684,
      "Ġlegendary": 7685,
      "vomiting": 7686,
      "rose": 7687,
      "Ġaccounting": 7688,
      "Ġsingapore": 7689,
      "Ġgravity": 7690,
      "greg": 7691,
      "Ġdiscuss": 7692,
      "Ġmedian": 7693,
      "Ġsnakes": 7694,
      "Ġattach": 7695,
      "Ġvisas": 7696,
      "Ġshir": 7697,
      "Ġentirely": 7698,
      "Ġsuggested": 7699,
      "Ġattracted": 7700,
      "Ġthousands": 7701,
      "Ġexpiration": 7702,
      "Ġiq": 7703,
      "Ġenforce": 7704,
      "Ġengaged": 7705,
      "Ġrelevant": 7706,
      "Ġpacks": 7707,
      "199": 7708,
      "nas": 7709,
      "inating": 7710,
      "Ġgent": 7711,
      "Ġstable": 7712,
      "Ġconversation": 7713,
      "Ġbic": 7714,
      "Ġhapt": 7715,
      "Ġovernight": 7716,
      "Ġbelt": 7717,
      "69": 7718,
      "itations": 7719,
      "second": 7720,
      "Ġbarrel": 7721,
      "Ġboarding": 7722,
      "Ġpakistan": 7723,
      "dry": 7724,
      "law": 7725,
      "olar": 7726,
      "Ġgray": 7727,
      "Ġqualified": 7728,
      "eveel": 7729,
      "Ġconfiguration": 7730,
      "Ġgate": 7731,
      "Ġ62": 7732,
      "Ġfinding": 7733,
      "Ġupdates": 7734,
      "Ġhormonal": 7735,
      "tax": 7736,
      "Ġcontrast": 7737,
      "57": 7738,
      "Ġrug": 7739,
      "grad": 7740,
      "Ġsensitivity": 7741,
      "Ġballs": 7742,
      "Ġtobacco": 7743,
      "aud": 7744,
      "leg": 7745,
      "Ġatp": 7746,
      "eland": 7747,
      "Ġbrowse": 7748,
      "ryl": 7749,
      "aken": 7750,
      "Ġentering": 7751,
      "auge": 7752,
      "Ġflexible": 7753,
      "Ġintense": 7754,
      "sell": 7755,
      "ifer": 7756,
      "Ġaccred": 7757,
      "Ġcookies": 7758,
      "Ġcombat": 7759,
      "Ġjackson": 7760,
      "Ġtends": 7761,
      "Ġimpe": 7762,
      "Ġsettle": 7763,
      "there": 7764,
      "Ġcoron": 7765,
      "Ġwra": 7766,
      "Ġacet": 7767,
      "Ġadvice": 7768,
      "Ġflush": 7769,
      "Ġ67": 7770,
      "Ġutility": 7771,
      "Ġay": 7772,
      "Ġbbc": 7773,
      "Ġfoss": 7774,
      "iture": 7775,
      "Ġsevent": 7776,
      "berg": 7777,
      "Ġutah": 7778,
      "Ġtb": 7779,
      "Ġaer": 7780,
      "hem": 7781,
      "Ġtheat": 7782,
      "Ġanswe": 7783,
      "that": 7784,
      "Ġpho": 7785,
      "Ġaids": 7786,
      "Ġbass": 7787,
      "Ġpassing": 7788,
      "tra": 7789,
      "Ġcomment": 7790,
      "terest": 7791,
      "Ġmissing": 7792,
      "Ġrental": 7793,
      "Ġjewel": 7794,
      "Ġhazard": 7795,
      "course": 7796,
      "Ġneighbor": 7797,
      "Ġoreg": 7798,
      "Ġeag": 7799,
      "axis": 7800,
      "Ġcontribution": 7801,
      "Ġoregon": 7802,
      "heast": 7803,
      "secut": 7804,
      "fever": 7805,
      "Ġtags": 7806,
      "Ġgradu": 7807,
      "Ġelite": 7808,
      "Ġvietnam": 7809,
      "Ġhaptics": 7810,
      "Ġanswered": 7811,
      "Ġwhom": 7812,
      "estion": 7813,
      "phot": 7814,
      "Ġpsychology": 7815,
      "limited": 7816,
      "Ġanton": 7817,
      "toxic": 7818,
      "Ġants": 7819,
      "Ġaspir": 7820,
      "Ġfilters": 7821,
      "Ġstool": 7822,
      "Ġworkshe": 7823,
      "Ġcircumst": 7824,
      "Ġunus": 7825,
      "Ġspicy": 7826,
      "Ġamp": 7827,
      "Ġswed": 7828,
      "gressive": 7829,
      "Ġquadr": 7830,
      "hma": 7831,
      "Ġjaw": 7832,
      "Ġconsisting": 7833,
      "Ġregulations": 7834,
      "Ġevaporated": 7835,
      "Ġpipe": 7836,
      "americ": 7837,
      "Ġsaving": 7838,
      "Ġbites": 7839,
      "Ġrestrictions": 7840,
      "Ġpg": 7841,
      "Ġtoler": 7842,
      "Ġhung": 7843,
      "Ġresort": 7844,
      "Ġvital": 7845,
      "Ġbusinesses": 7846,
      "Ġwii": 7847,
      "Ġinjection": 7848,
      "ran": 7849,
      "Ġtik": 7850,
      "Ġweighing": 7851,
      "Ġdmv": 7852,
      "hens": 7853,
      "owa": 7854,
      "Ġwhis": 7855,
      "Ġpasses": 7856,
      "Ġmultiplayer": 7857,
      "hn": 7858,
      "Ġjen": 7859,
      "Ġentit": 7860,
      "Ġpreventing": 7861,
      "Ġproportional": 7862,
      "Ġtattoo": 7863,
      "rance": 7864,
      "Ġsaus": 7865,
      "once": 7866,
      "Ġmature": 7867,
      "Ġstated": 7868,
      "Ġneur": 7869,
      "Ġiniti": 7870,
      "Ġnuclear": 7871,
      "Ġexceptions": 7872,
      "Ġnin": 7873,
      "quality": 7874,
      "Ġparallel": 7875,
      "inea": 7876,
      "Ġspending": 7877,
      "Ġtyph": 7878,
      "Ġsolve": 7879,
      "Ġcorrectly": 7880,
      "Ġlifetime": 7881,
      "Ġcinnamon": 7882,
      "Ġkosher": 7883,
      "bank": 7884,
      "fly": 7885,
      "Ġduct": 7886,
      "Ġoffline": 7887,
      "vascular": 7888,
      "Ġcomparison": 7889,
      "Ġlactose": 7890,
      "cas": 7891,
      "Ġcraft": 7892,
      "Ġpatch": 7893,
      "Ġtru": 7894,
      "Ġredeem": 7895,
      "Ġauthent": 7896,
      "iatric": 7897,
      "link": 7898,
      "mil": 7899,
      "Ġbean": 7900,
      "Ġtransit": 7901,
      "post": 7902,
      "Ġlets": 7903,
      "Ġgraduate": 7904,
      "rael": 7905,
      "Ġpotter": 7906,
      "ht": 7907,
      "save": 7908,
      "Ġtort": 7909,
      "Ġpods": 7910,
      "Ġdaylight": 7911,
      "never": 7912,
      "Ġ68": 7913,
      "Ġproducing": 7914,
      "owsiness": 7915,
      "aught": 7916,
      "Ġmotorcycle": 7917,
      "mel": 7918,
      "Ġcad": 7919,
      "Ġpv": 7920,
      "Ġpus": 7921,
      "Ġ56": 7922,
      "Ġreserve": 7923,
      "Ġincred": 7924,
      "Ġtyping": 7925,
      "Ġstudios": 7926,
      "Ġtreating": 7927,
      "exp": 7928,
      "Ġwarning": 7929,
      "Ġstrongest": 7930,
      "Ġestablish": 7931,
      "watch": 7932,
      "Ġfare": 7933,
      "Ġnhs": 7934,
      "Ġlean": 7935,
      "Ġbytes": 7936,
      "Ġcomposite": 7937,
      "Ġspider": 7938,
      "Ġdiff": 7939,
      "Ġredness": 7940,
      "Ġexpert": 7941,
      "Ġamy": 7942,
      "Ġcitrus": 7943,
      "Ġpaired": 7944,
      "Ġhtml": 7945,
      "fam": 7946,
      "Ġink": 7947,
      "Ġheating": 7948,
      "Ġcompact": 7949,
      "Ġ41": 7950,
      "mony": 7951,
      "Ġboil": 7952,
      "Ġestimates": 7953,
      "Ġpilot": 7954,
      "Ġalabama": 7955,
      "Ġlongest": 7956,
      "Ġchecking": 7957,
      "Ġcertainly": 7958,
      "Ġdemocratic": 7959,
      "anth": 7960,
      "itative": 7961,
      "rot": 7962,
      "Ġseiz": 7963,
      "Ġintestine": 7964,
      "artered": 7965,
      "Ġroads": 7966,
      "Ġresidence": 7967,
      "Ġpressing": 7968,
      "Ġslim": 7969,
      "Ġlabeled": 7970,
      "Ġdelta": 7971,
      "Ġownership": 7972,
      "inflammatory": 7973,
      "just": 7974,
      "Ġbeds": 7975,
      "Ġiu": 7976,
      "Ġexclusively": 7977,
      "chi": 7978,
      "Ġdeveloper": 7979,
      "Ġkindle": 7980,
      "Ġstocks": 7981,
      "Ġscientists": 7982,
      "Ġrestaurant": 7983,
      "case": 7984,
      "Ġunable": 7985,
      "Ġdraft": 7986,
      "away": 7987,
      "Ġjail": 7988,
      "Ġcarib": 7989,
      "Ġblow": 7990,
      "Ġcrow": 7991,
      "Ġslot": 7992,
      "shire": 7993,
      "Ġdesigner": 7994,
      "Ġclearly": 7995,
      "Ġbmw": 7996,
      "Ġsoul": 7997,
      "Ġneuro": 7998,
      "Ġbrief": 7999,
      "Ġringtones": 8000,
      "Ġsmartphone": 8001,
      "windows": 8002,
      "Ġcoal": 8003,
      "Ġbrush": 8004,
      "Ġ700": 8005,
      "Ġintensity": 8006,
      "bone": 8007,
      "aria": 8008,
      "Ġclim": 8009,
      "Ġgrap": 8010,
      "Ġserv": 8011,
      "Ġapplicable": 8012,
      "aining": 8013,
      "ologists": 8014,
      "Ġobl": 8015,
      "Ġcyl": 8016,
      "Ġidentified": 8017,
      "Ġmasters": 8018,
      "Ġpros": 8019,
      "Ġspell": 8020,
      "Ġconcern": 8021,
      "Ġlucky": 8022,
      "Ġease": 8023,
      "Ġexams": 8024,
      "Ġkorean": 8025,
      "Ġsubstitute": 8026,
      "lib": 8027,
      "Ġhet": 8028,
      "aki": 8029,
      "Ġblend": 8030,
      "Ġphotograp": 8031,
      "Ġreduces": 8032,
      "wr": 8033,
      "una": 8034,
      "Ġcolleges": 8035,
      "Ġscenes": 8036,
      "Ġasian": 8037,
      "Ġsalad": 8038,
      "Ġlightning": 8039,
      "Ġputting": 8040,
      "Ġmeeting": 8041,
      "zyme": 8042,
      "Ġmold": 8043,
      "Ġns": 8044,
      "Ġtrim": 8045,
      "Ġrolling": 8046,
      "Ġdescribes": 8047,
      "56": 8048,
      "Ġserves": 8049,
      "Ġ2007": 8050,
      "Ġeleph": 8051,
      "Ġartist": 8052,
      "Ġreward": 8053,
      "Ġservers": 8054,
      "Ġactivate": 8055,
      "Ġsurfaces": 8056,
      "icular": 8057,
      "Ġ63": 8058,
      "Ġ97": 8059,
      "Ġfibre": 8060,
      "Ġlining": 8061,
      "Ġsoup": 8062,
      "Ġdevi": 8063,
      "quar": 8064,
      "Ġmob": 8065,
      "Ġpencil": 8066,
      "Ġtren": 8067,
      "orph": 8068,
      "Ġbees": 8069,
      "while": 8070,
      "Ġenem": 8071,
      "Ġattend": 8072,
      "visit": 8073,
      "\".',": 8074,
      "pur": 8075,
      "Ġtense": 8076,
      "tok": 8077,
      "Ġcrab": 8078,
      "Ġqualification": 8079,
      "Ġcyclo": 8080,
      "Ġdetected": 8081,
      "Ġcasual": 8082,
      "Ġzoom": 8083,
      "Ġcandidates": 8084,
      "Ġluxury": 8085,
      "Ġexamination": 8086,
      "dp": 8087,
      "Ġpane": 8088,
      "Ġdump": 8089,
      "omatic": 8090,
      "urred": 8091,
      "plant": 8092,
      "Ġeasiest": 8093,
      "Ġconflic": 8094,
      "gent": 8095,
      "Ġbuff": 8096,
      "adesh": 8097,
      "Ġsticks": 8098,
      "Ġcampus": 8099,
      "!!": 8100,
      "Ġaad": 8101,
      "onin": 8102,
      "Ġluc": 8103,
      "Ġannually": 8104,
      "headed": 8105,
      "Ġprofession": 8106,
      "Ġasthma": 8107,
      "Ġtoyota": 8108,
      "next": 8109,
      "ilesync": 8110,
      "Ġmanufacturers": 8111,
      "bud": 8112,
      "Ġloyal": 8113,
      "world": 8114,
      "Ġtenderness": 8115,
      "Ġmammals": 8116,
      "Ġalligators": 8117,
      "fire": 8118,
      "Ġhotels": 8119,
      "Ġyouth": 8120,
      "Ġ43": 8121,
      "Ġdecided": 8122,
      "Ġslime": 8123,
      "Ġdescend": 8124,
      "Ġcircumstances": 8125,
      "pad": 8126,
      "Ġtier": 8127,
      "Ġment": 8128,
      "cline": 8129,
      "ateral": 8130,
      "âĢ³": 8131,
      "aven": 8132,
      "ella": 8133,
      "Ġpromote": 8134,
      "worms": 8135,
      "Ġbil": 8136,
      "Ġpasscode": 8137,
      "Ġheads": 8138,
      "Ġdreams": 8139,
      "Ġprescribed": 8140,
      "Ġdisappear": 8141,
      "jac": 8142,
      "td": 8143,
      "uing": 8144,
      "Ġcath": 8145,
      "Ġrevol": 8146,
      "Ġtrains": 8147,
      "Ġclots": 8148,
      "Ġsmallest": 8149,
      "nesota": 8150,
      "Ġkilling": 8151,
      "Ġgcf": 8152,
      "cat": 8153,
      "Ġcarries": 8154,
      "ometer": 8155,
      "Ġ240": 8156,
      "ĠâĤ": 8157,
      "Ġmitosis": 8158,
      "Ġlug": 8159,
      "Ġja": 8160,
      "Ġabort": 8161,
      "Ġmargin": 8162,
      "lium": 8163,
      "Ġtransmitted": 8164,
      "Ġcysts": 8165,
      "iosis": 8166,
      "oral": 8167,
      "ours": 8168,
      "Ġdisabled": 8169,
      "Ġorganiz": 8170,
      "inoa": 8171,
      "nut": 8172,
      "rich": 8173,
      "Ġpant": 8174,
      "Ġdun": 8175,
      "Ġknife": 8176,
      "Ġspeeds": 8177,
      "aze": 8178,
      "burg": 8179,
      "Ġdirt": 8180,
      "Ġdenominator": 8181,
      "bet": 8182,
      "cap": 8183,
      "gical": 8184,
      "Ġjef": 8185,
      "Ġnotified": 8186,
      "Ġclay": 8187,
      "Ġsalmon": 8188,
      "Ġmarkets": 8189,
      "Ġacceptable": 8190,
      "Ġeconom": 8191,
      "Ġadapt": 8192,
      "Ġyol": 8193,
      "Ġfallen": 8194,
      "Ġvet": 8195,
      "Ġequates": 8196,
      "Ġryan": 8197,
      "Ġvolcano": 8198,
      "nuts": 8199,
      "onym": 8200,
      "Ġrope": 8201,
      "iano": 8202,
      "Ġvisiting": 8203,
      "Ġconfusion": 8204,
      "Ġoffering": 8205,
      "zerland": 8206,
      "Ġangel": 8207,
      "Ġinstitution": 8208,
      "protect": 8209,
      "Ġimessage": 8210,
      "Ġhang": 8211,
      "Ġlev": 8212,
      "Ġlikes": 8213,
      "Ġapproach": 8214,
      "Ġfootage": 8215,
      "Ġoxide": 8216,
      "Ġbulbs": 8217,
      "Ġpeanuts": 8218,
      "birth": 8219,
      "mod": 8220,
      "Ġbis": 8221,
      "entary": 8222,
      "Ġgrill": 8223,
      "Ġrecur": 8224,
      "Ġagricult": 8225,
      "Ġrepeated": 8226,
      "98": 8227,
      "Ġaloe": 8228,
      "wei": 8229,
      "Ġagree": 8230,
      "Ġlisten": 8231,
      "Ġtonsils": 8232,
      "Ġpeter": 8233,
      "arms": 8234,
      "Ġreached": 8235,
      "Ġwealth": 8236,
      "akers": 8237,
      "Ġsupreme": 8238,
      "Ġeyel": 8239,
      "Ġtro": 8240,
      "Ġlig": 8241,
      "Ġconv": 8242,
      "pel": 8243,
      "real": 8244,
      "Ġcube": 8245,
      "Ġtrump": 8246,
      "Ġquiet": 8247,
      "Ġbug": 8248,
      "Ġmoistur": 8249,
      "Ġelevated": 8250,
      "ËĲ": 8251,
      "Ġtrib": 8252,
      "Ġthank": 8253,
      "Ġfestival": 8254,
      "]']": 8255,
      "orian": 8256,
      "Ġncaa": 8257,
      "ithromycin": 8258,
      "Ġreceipt": 8259,
      "bling": 8260,
      "Ġscheme": 8261,
      "Ġarteries": 8262,
      "Ġmri": 8263,
      "Ġzeros": 8264,
      "Ġcenters": 8265,
      "iveness": 8266,
      "Ġfigs": 8267,
      "stream": 8268,
      "Ġtropical": 8269,
      "Ġprotocol": 8270,
      "uent": 8271,
      "Ġlion": 8272,
      "Ġpurple": 8273,
      "Ġprecise": 8274,
      "Ġenabled": 8275,
      "doors": 8276,
      "Ġwinning": 8277,
      "nov": 8278,
      "somet": 8279,
      "using": 8280,
      "Ġjord": 8281,
      "Ġspouse": 8282,
      "Ġinterior": 8283,
      "Ġmagaz": 8284,
      "Ġquarters": 8285,
      "Ġpup": 8286,
      "Ġdock": 8287,
      "Ġ78": 8288,
      "Ġtherm": 8289,
      "Ġconventional": 8290,
      "350": 8291,
      "Ġjoy": 8292,
      "short": 8293,
      "Ġeukaryotic": 8294,
      "Ġtetanus": 8295,
      "obe": 8296,
      "Ġting": 8297,
      "arn": 8298,
      "Ġreps": 8299,
      "verty": 8300,
      "Ġ54": 8301,
      "Ġmarine": 8302,
      "Ġparties": 8303,
      "Ġsignatures": 8304,
      "Ġgrocer": 8305,
      "Ġatlanta": 8306,
      "001": 8307,
      "Ġcreates": 8308,
      "Ġtm": 8309,
      "ibilities": 8310,
      "Ġscar": 8311,
      "Ġactions": 8312,
      "Ġcereal": 8313,
      "Ġunderstanding": 8314,
      "Ġtuna": 8315,
      "Ġopportunity": 8316,
      "Ġbigh": 8317,
      "Ġpic": 8318,
      "abeth": 8319,
      "Ġplas": 8320,
      "Ġbaths": 8321,
      "Ġtherapist": 8322,
      "Ġsufficient": 8323,
      "Ġvas": 8324,
      "Ġunknown": 8325,
      "Ġnickel": 8326,
      "only": 8327,
      "eno": 8328,
      "Ġdani": 8329,
      "Ġka": 8330,
      "Ġquinoa": 8331,
      "Ġminnesota": 8332,
      "Ġhumid": 8333,
      "Ġtower": 8334,
      "Ġhouses": 8335,
      "Ġphosphorus": 8336,
      "Ġembry": 8337,
      "gun": 8338,
      "lah": 8339,
      "Ġsbi": 8340,
      "verb": 8341,
      "Ġcomedy": 8342,
      "rens": 8343,
      "Ġvanilla": 8344,
      "Ġmechanical": 8345,
      "Ġbelongs": 8346,
      "Ġcruise": 8347,
      "Ġpf": 8348,
      "alo": 8349,
      "Ġlady": 8350,
      "Ġrome": 8351,
      "Ġkin": 8352,
      "ensus": 8353,
      "Ġsupported": 8354,
      "color": 8355,
      "ungal": 8356,
      "Ġmunicip": 8357,
      "system": 8358,
      "Ġanime": 8359,
      "Ġdeals": 8360,
      "Ġspare": 8361,
      "angered": 8362,
      "oxicillin": 8363,
      "Ġ2008": 8364,
      "Ġhemorr": 8365,
      "Ġexperienced": 8366,
      "Ġreligion": 8367,
      "Ġinver": 8368,
      "Ġindoor": 8369,
      "abdom": 8370,
      "âĢĿ',": 8371,
      "Ġcuts": 8372,
      "large": 8373,
      "08": 8374,
      "Ġoak": 8375,
      "Ġisrael": 8376,
      "oda": 8377,
      "Ġclosest": 8378,
      "3333": 8379,
      "Ġdropped": 8380,
      "74": 8381,
      "rem": 8382,
      "artan": 8383,
      "Ġ2009": 8384,
      "iti": 8385,
      "terior": 8386,
      "Ġnex": 8387,
      "Ġannivers": 8388,
      "Ġbelieved": 8389,
      "Ġsilic": 8390,
      "Ġinverse": 8391,
      "Ġkl": 8392,
      "Ġspine": 8393,
      "achel": 8394,
      "Ġtotally": 8395,
      "Ġlent": 8396,
      "Ġgifts": 8397,
      "Ġghost": 8398,
      "Ġheard": 8399,
      "icellular": 8400,
      "Ġticks": 8401,
      "Ġadjectives": 8402,
      "otherapy": 8403,
      "ti": 8404,
      "Ġhemp": 8405,
      "iolet": 8406,
      "Ġsymb": 8407,
      "Ġtreats": 8408,
      "ductive": 8409,
      "Ġiii": 8410,
      "healthy": 8411,
      "Ġbpa": 8412,
      "chlor": 8413,
      "Ġpatriots": 8414,
      "Ġknit": 8415,
      "Ġ74": 8416,
      "Ġdecide": 8417,
      "Ġleadership": 8418,
      "Ġbreathe": 8419,
      "Ġdecreased": 8420,
      "Ġvenom": 8421,
      "Ġrecyclable": 8422,
      "Ġrev": 8423,
      "lop": 8424,
      "Ġcheckbox": 8425,
      "ugg": 8426,
      "Ġvisitors": 8427,
      "Ġopportunities": 8428,
      "ris": 8429,
      "Ġtay": 8430,
      "Ġles": 8431,
      "Ġpoverty": 8432,
      "Ġparad": 8433,
      "iasis": 8434,
      "Ġdiesel": 8435,
      "Ġhybrid": 8436,
      "Ġkentucky": 8437,
      "Ġcf": 8438,
      "Ġcovalent": 8439,
      "Ġmarg": 8440,
      "Ġnationals": 8441,
      "ĠÏ": 8442,
      "Ġpist": 8443,
      "ilton": 8444,
      "Ġopens": 8445,
      "Ġsignals": 8446,
      "Ġendangered": 8447,
      "Ġirrational": 8448,
      "Ġworksheet": 8449,
      "fron": 8450,
      "hell": 8451,
      "Ġkh": 8452,
      "Ġpostage": 8453,
      "Ġencour": 8454,
      "Ġaspect": 8455,
      "Ġusda": 8456,
      "Ġdefense": 8457,
      "Ġchoices": 8458,
      "Ġextensions": 8459,
      "Ġdeposits": 8460,
      "osterone": 8461,
      "Ġanniversary": 8462,
      "chant": 8463,
      "Ġvom": 8464,
      "Ġfilmed": 8465,
      "Ġbikes": 8466,
      "Ġchloride": 8467,
      "build": 8468,
      "Ġez": 8469,
      "Ġraz": 8470,
      "Ġboat": 8471,
      "Ġclocks": 8472,
      "Ġiced": 8473,
      "Ġfeminine": 8474,
      "Ġamazing": 8475,
      "Ġpixel": 8476,
      "022": 8477,
      "iors": 8478,
      "Ġnights": 8479,
      "umat": 8480,
      "Ġlogo": 8481,
      "Ġapplicants": 8482,
      "launch": 8483,
      "Ġmandatory": 8484,
      "Ġstrike": 8485,
      "?']": 8486,
      "users": 8487,
      "aren": 8488,
      "Ġhell": 8489,
      "Ġtones": 8490,
      "Ġbands": 8491,
      "Ġpale": 8492,
      "Ġgn": 8493,
      "Ġteaching": 8494,
      "Ġaggressive": 8495,
      "Ġfitbit": 8496,
      "Ġprohibited": 8497,
      "Ġvacuum": 8498,
      "public": 8499,
      "Ġphen": 8500,
      "Ġgums": 8501,
      "Ġreaches": 8502,
      "Ġworms": 8503,
      "Ġmont": 8504,
      "orrhea": 8505,
      "Ġinjuries": 8506,
      "Ġfighting": 8507,
      "Ġcort": 8508,
      "Ġgrows": 8509,
      "Ġjeep": 8510,
      "first": 8511,
      "Ġparas": 8512,
      "Ġpriority": 8513,
      "Ġsandwich": 8514,
      "bes": 8515,
      "Ġgoats": 8516,
      "Ġzy": 8517,
      "Ġhua": 8518,
      "asure": 8519,
      "Ġ110": 8520,
      "Ġgrapes": 8521,
      "Ġ47": 8522,
      "appdata": 8523,
      "Ġinfant": 8524,
      "Ġgallery": 8525,
      "Ġroblox": 8526,
      "Ġferment": 8527,
      "Ġhop": 8528,
      "vac": 8529,
      "rey": 8530,
      "Ġker": 8531,
      "rence": 8532,
      "Ġcontext": 8533,
      "Ġnewton": 8534,
      "Ġcaribbean": 8535,
      "oler": 8536,
      "Ġrachel": 8537,
      "Ġcongr": 8538,
      "Ġaccum": 8539,
      "Ġantif": 8540,
      "Ġslip": 8541,
      "Ġmeasurements": 8542,
      "Ġfacial": 8543,
      "stein": 8544,
      "Ġkenya": 8545,
      "Ġvillage": 8546,
      "Ġsne": 8547,
      "omi": 8548,
      "adryl": 8549,
      "sec": 8550,
      "Ġrooms": 8551,
      "Ġvera": 8552,
      "Ġholy": 8553,
      "Ġkissing": 8554,
      "Ġprincipal": 8555,
      "pc": 8556,
      "ruit": 8557,
      "Ġchosen": 8558,
      "Ġkat": 8559,
      "Ġuniform": 8560,
      "Ġtrucks": 8561,
      "Ġelected": 8562,
      "izzy": 8563,
      "heat": 8564,
      "Ġdenotes": 8565,
      "Ġ365": 8566,
      "Ġresponsibility": 8567,
      "Ġfantasy": 8568,
      "Ġhorizontal": 8569,
      "Ġcows": 8570,
      "thal": 8571,
      "Ġlex": 8572,
      "Ġtourism": 8573,
      "Ġtriple": 8574,
      "Ġassigned": 8575,
      "reated": 8576,
      "Ġcakes": 8577,
      "Ġlens": 8578,
      "Ġtrace": 8579,
      "Ġpronounced": 8580,
      "Ġswitzerland": 8581,
      "Ġtoe": 8582,
      "arest": 8583,
      "Ġcheque": 8584,
      "Ġtwe": 8585,
      "Ġhr": 8586,
      "Ġcleans": 8587,
      "Ġhook": 8588,
      "should": 8589,
      "Ġvacation": 8590,
      "Ġexercises": 8591,
      "Ġconstruct": 8592,
      "Ġanatomy": 8593,
      "06": 8594,
      "rix": 8595,
      "Ġsag": 8596,
      "olen": 8597,
      "white": 8598,
      "Ġclosely": 8599,
      "Ġdinner": 8600,
      "Ġtoxins": 8601,
      "Ġcongestion": 8602,
      "gon": 8603,
      "Ġace": 8604,
      "Ġpants": 8605,
      "Ġparam": 8606,
      "Ġattractive": 8607,
      "Ġdw": 8608,
      "Ġdwar": 8609,
      "coa": 8610,
      "Ġlitre": 8611,
      "125": 8612,
      "Ġsickle": 8613,
      "loxacin": 8614,
      "Ġfav": 8615,
      "oline": 8616,
      "Ġrig": 8617,
      "Ġkb": 8618,
      "Ġturning": 8619,
      "Ġoperator": 8620,
      "Ġcervix": 8621,
      "Ġimperial": 8622,
      "nings": 8623,
      "inals": 8624,
      "irus": 8625,
      "Ġvapor": 8626,
      "Ġshelf": 8627,
      "Ġbreaking": 8628,
      "pool": 8629,
      "Ġnutrit": 8630,
      "Ġreturning": 8631,
      "Ġcompetitive": 8632,
      "Ġopinion": 8633,
      "Ġvr": 8634,
      "Ġphysics": 8635,
      "Ġrolls": 8636,
      "ggle": 8637,
      "Ġlithium": 8638,
      "pie": 8639,
      "het": 8640,
      "Ġbile": 8641,
      "0000": 8642,
      "Ġads": 8643,
      "Ġexpense": 8644,
      "Ġtrainer": 8645,
      "Ġinfluence": 8646,
      "atile": 8647,
      "Ġfaces": 8648,
      "opause": 8649,
      "Ġmega": 8650,
      "Ġoverview": 8651,
      "Ġbarley": 8652,
      "Ġimmediate": 8653,
      "Ġkilometers": 8654,
      "rels": 8655,
      "anna": 8656,
      "Ġhorn": 8657,
      "Ġginger": 8658,
      "utes": 8659,
      "Ġnoble": 8660,
      "Ġgenital": 8661,
      "Ġsquash": 8662,
      "Ġverify": 8663,
      "Ġcrackers": 8664,
      "Ġmcdonald": 8665,
      "Ġtyphoid": 8666,
      "ih": 8667,
      "Ġbure": 8668,
      "Ġana": 8669,
      "osomes": 8670,
      "Ġtails": 8671,
      "Ġcompare": 8672,
      "Ġreput": 8673,
      "Ġpenny": 8674,
      "Ġpermanently": 8675,
      "Ġhidden": 8676,
      "izabeth": 8677,
      "Ġvalu": 8678,
      "Ġdominant": 8679,
      "human": 8680,
      "Ġub": 8681,
      "Ġbeet": 8682,
      "Ġdrum": 8683,
      "Ġshoulder": 8684,
      "Ġtransition": 8685,
      "Ġoriginated": 8686,
      "Ġhuawei": 8687,
      "bas": 8688,
      "dif": 8689,
      "food": 8690,
      "Ġcables": 8691,
      "erk": 8692,
      "Ġbah": 8693,
      "Ġfont": 8694,
      "section": 8695,
      "Ġassistance": 8696,
      "Ġcarrying": 8697,
      "ãģ": 8698,
      "Ġhong": 8699,
      "Ġconcept": 8700,
      "loid": 8701,
      "aprine": 8702,
      "Ġmusical": 8703,
      "Ġurban": 8704,
      "Ġbanana": 8705,
      "black": 8706,
      "Ġnumerous": 8707,
      "benzaprine": 8708,
      "vents": 8709,
      "anol": 8710,
      "oring": 8711,
      "itals": 8712,
      "educ": 8713,
      "Ġlakes": 8714,
      "ceed": 8715,
      "Ġherit": 8716,
      "Ġmario": 8717,
      "Ġpersons": 8718,
      "Ġcustoms": 8719,
      "Ġbleach": 8720,
      "Ġdash": 8721,
      "ingu": 8722,
      "Ġitv": 8723,
      "irates": 8724,
      "rypt": 8725,
      "Ġdesert": 8726,
      "Ġcertificates": 8727,
      "Ġtrailer": 8728,
      "Ġtruly": 8729,
      "1000": 8730,
      "Ġunlimited": 8731,
      "opard": 8732,
      "Ġlinks": 8733,
      "Ġcsv": 8734,
      "Ġempire": 8735,
      "det": 8736,
      "skin": 8737,
      "infect": 8738,
      "Ġjog": 8739,
      "boards": 8740,
      "Ġfreed": 8741,
      "Ġresource": 8742,
      "Ġscorp": 8743,
      "mobilesync": 8744,
      "ders": 8745,
      "Ġjav": 8746,
      "Ġasset": 8747,
      "Ġindiana": 8748,
      "Ġcabbage": 8749,
      "Ġcpu": 8750,
      "Ġconvenient": 8751,
      "hire": 8752,
      "wis": 8753,
      "Ġvans": 8754,
      "aints": 8755,
      "ĠâĢ¦": 8756,
      "Ġregional": 8757,
      "Ġfalling": 8758,
      "Ġbreakdown": 8759,
      "Ġthirst": 8760,
      "mill": 8761,
      "rill": 8762,
      "rough": 8763,
      "erto": 8764,
      "Ġowe": 8765,
      "Ġranging": 8766,
      "ancies": 8767,
      "pox": 8768,
      "lahoma": 8769,
      "uity": 8770,
      "áĦ": 8771,
      "áħ": 8772,
      "Ġthomas": 8773,
      "Ġonions": 8774,
      "Ġroy": 8775,
      "Ġdebut": 8776,
      "Ġvaccination": 8777,
      "Ġquantities": 8778,
      "rophy": 8779,
      "gpa": 8780,
      "Ġtech": 8781,
      "Ġportug": 8782,
      "Ġfrost": 8783,
      "Ġpiercing": 8784,
      "Ġcbd": 8785,
      "Ġmushrooms": 8786,
      "Ġtough": 8787,
      "Ġasking": 8788,
      "Ġrepresented": 8789,
      "Ġnutritious": 8790,
      "Ġfb": 8791,
      "Ġwing": 8792,
      "Ġparking": 8793,
      "Ġstops": 8794,
      "Ġordinary": 8795,
      "Ġranked": 8796,
      "Ġdense": 8797,
      "ird": 8798,
      "Ġcanal": 8799,
      "Ġcance": 8800,
      "Ġjou": 8801,
      "Ġsnake": 8802,
      "Ġslice": 8803,
      "Ġshortness": 8804,
      "Ġhunt": 8805,
      "Ġrows": 8806,
      "Ġyearly": 8807,
      "Ġoutdoor": 8808,
      "Ġairline": 8809,
      "Ġinspect": 8810,
      "Ġstopping": 8811,
      "Ġconcluded": 8812,
      "vide": 8813,
      "ynt": 8814,
      "Ġsisters": 8815,
      "Ġadobe": 8816,
      "Ġprinter": 8817,
      "Ġpolish": 8818,
      "shaped": 8819,
      "Ġpurchases": 8820,
      "Ġseparated": 8821,
      "Ġsuspended": 8822,
      "Ġumbrella": 8823,
      "900": 8824,
      "ey": 8825,
      "Ġrapp": 8826,
      "Ġdecent": 8827,
      "haps": 8828,
      "Ġdh": 8829,
      "agus": 8830,
      "ipher": 8831,
      "Ġcompleting": 8832,
      "Ġexceed": 8833,
      "Ġappeared": 8834,
      "Ġnipp": 8835,
      "Ġskull": 8836,
      "Ġ155": 8837,
      "Ġprinted": 8838,
      "american": 8839,
      "Ġmutual": 8840,
      "Ġheritage": 8841,
      "ocr": 8842,
      "Ġrus": 8843,
      "clin": 8844,
      "Ġquot": 8845,
      "Ġmyster": 8846,
      "Ġcritical": 8847,
      "grow": 8848,
      "Ġchampion": 8849,
      "iblical": 8850,
      "presso": 8851,
      "Ġ\\": 8852,
      "ref": 8853,
      "Ġmike": 8854,
      "acent": 8855,
      "email": 8856,
      "Ġevil": 8857,
      "Ġtransferred": 8858,
      "Ġfactorization": 8859,
      "Ġmmol": 8860,
      "map": 8861,
      "Ġloud": 8862,
      "Ġenzyme": 8863,
      "Ġjoined": 8864,
      "Ġsalts": 8865,
      "Ġguinea": 8866,
      "antic": 8867,
      "Ġdrives": 8868,
      "Ġnewer": 8869,
      "Ġphysi": 8870,
      "credits": 8871,
      "Ġjordan": 8872,
      "Ġue": 8873,
      "Ġacting": 8874,
      "Ġfertilized": 8875,
      "Ġdissolve": 8876,
      "hots": 8877,
      "paid": 8878,
      "rylic": 8879,
      "Ġairs": 8880,
      "Ġcyst": 8881,
      "Ġdiagnosis": 8882,
      "Ġrussian": 8883,
      "Ġassembly": 8884,
      "Ġbrought": 8885,
      "product": 8886,
      "Ġcutting": 8887,
      "Ġexplained": 8888,
      "Ġspotify": 8889,
      "Ġpinterest": 8890,
      "Ġcousin": 8891,
      "Ġengagement": 8892,
      "fil": 8893,
      "sal": 8894,
      "vada": 8895,
      "itches": 8896,
      "Ġlived": 8897,
      "Ġfunctional": 8898,
      "Ġnutrient": 8899,
      "Ġtang": 8900,
      "ppers": 8901,
      "Ġjama": 8902,
      "Ġanytime": 8903,
      "Ġreceiver": 8904,
      "Ġscript": 8905,
      "Ġprepare": 8906,
      "Ġcarried": 8907,
      "Ġtwelve": 8908,
      "Ġelder": 8909,
      "Ġvomit": 8910,
      "ented": 8911,
      "Ġbee": 8912,
      "Ġguys": 8913,
      "Ġcustomize": 8914,
      "rous": 8915,
      "sk": 8916,
      "zip": 8917,
      "Ġpricing": 8918,
      "ermint": 8919,
      "Ġpostal": 8920,
      "Ġaccessories": 8921,
      "Ġoklahoma": 8922,
      "Ġevalu": 8923,
      "Ġdiscontinued": 8924,
      "bury": 8925,
      "nity": 8926,
      "Ġdying": 8927,
      "rote": 8928,
      "Ġ->": 8929,
      "Ġtummy": 8930,
      "Ġdermat": 8931,
      "Ġgentle": 8932,
      "Ġthaw": 8933,
      "ouri": 8934,
      "activ": 8935,
      "Ġamoxicillin": 8936,
      "Ġcrunch": 8937,
      "Ġdropbox": 8938,
      "Ġsymbols": 8939,
      "var": 8940,
      "Ġpt": 8941,
      "Ġdough": 8942,
      "Ġinhal": 8943,
      "oglob": 8944,
      "Ġeffectively": 8945,
      "Ġhonest": 8946,
      "constipation": 8947,
      "Ġhills": 8948,
      "Ġthigh": 8949,
      "Ġconference": 8950,
      "Ġelizabeth": 8951,
      "finity": 8952,
      "aign": 8953,
      "fed": 8954,
      "Ġ000": 8955,
      "Ġcured": 8956,
      "esity": 8957,
      "text": 8958,
      "duce": 8959,
      "Ġminus": 8960,
      "Ġjudges": 8961,
      "brit": 8962,
      "gus": 8963,
      "kers": 8964,
      "wash": 8965,
      "Ġpand": 8966,
      "Ġvast": 8967,
      "Ġintercourse": 8968,
      "carb": 8969,
      "Ġinvolve": 8970,
      "Ġclubs": 8971,
      "Ġspinach": 8972,
      "ports": 8973,
      "test": 8974,
      "Ġrna": 8975,
      "Ġprove": 8976,
      "Ġcoca": 8977,
      "Ġmint": 8978,
      "Ġinteract": 8979,
      "Ġsunlight": 8980,
      "Ġghana": 8981,
      "Ġsulfate": 8982,
      "Ġiowa": 8983,
      "âĢĿ)": 8984,
      "Ġnearby": 8985,
      "Ġcandles": 8986,
      "nor": 8987,
      "rors": 8988,
      "idal": 8989,
      "ivores": 8990,
      "Ġdiscounts": 8991,
      "Ġspreadshe": 8992,
      "Ġsimplest": 8993,
      "Ġbacon": 8994,
      "Ġcaught": 8995,
      "Ġlump": 8996,
      "usually": 8997,
      "Ġalaska": 8998,
      "Ġ96": 8999,
      "Ġinterpre": 9000,
      "Ġintel": 9001,
      "manage": 9002,
      "Ġwriter": 9003,
      "standing": 9004,
      "Ġconvention": 9005,
      "tens": 9006,
      "hetic": 9007,
      "Ġbid": 9008,
      "Ġwizard": 9009,
      "ista": 9010,
      "Ġmeats": 9011,
      "Ġdiver": 9012,
      "intest": 9013,
      "Ġcrew": 9014,
      "Ġovarian": 9015,
      "Ġkiloby": 9016,
      "Ġinstrument": 9017,
      "Ġjed": 9018,
      "Ġidiom": 9019,
      "Ġatlantic": 9020,
      "Ġunusual": 9021,
      "Ġcyclobenzaprine": 9022,
      "tb": 9023,
      "Ġbiblical": 9024,
      "Ġhat": 9025,
      "Ġorth": 9026,
      "Ġdozen": 9027,
      "Ġnov": 9028,
      "Ġ53": 9029,
      "Ġfriendship": 9030,
      "Ġchromosome": 9031,
      "Ġduplic": 9032,
      "Ġplasma": 9033,
      "Ø§": 9034,
      "Ġstiff": 9035,
      "Ġretention": 9036,
      "Ġrestart": 9037,
      "Ġsells": 9038,
      "Ġimprovement": 9039,
      "Ġacquired": 9040,
      "Ġdosage": 9041,
      "intestinal": 9042,
      "Ġtread": 9043,
      "Ġtsp": 9044,
      "Ġkfc": 9045,
      "Ġperhaps": 9046,
      "Ġpassengers": 9047,
      "Ġ98": 9048,
      "Ġposted": 9049,
      "Ġpractition": 9050,
      "Ġmask": 9051,
      "Ġmetabolic": 9052,
      "Ġarticles": 9053,
      "abdominal": 9054,
      "Ġtrick": 9055,
      "karyotes": 9056,
      "Ġdysfunction": 9057,
      "Ġwhitening": 9058,
      "Ġtill": 9059,
      "Ġmud": 9060,
      "Ġdd": 9061,
      "Ġhect": 9062,
      "Ġnearest": 9063,
      "Ġhappened": 9064,
      "Ġoccurring": 9065,
      "Ġarray": 9066,
      "Ġ1998": 9067,
      "olly": 9068,
      "Ġvegg": 9069,
      "Ġfiled": 9070,
      "being": 9071,
      "Ġdryer": 9072,
      "Ġmissouri": 9073,
      "Ġtracking": 9074,
      "Ġliars": 9075,
      "Ġsolo": 9076,
      "Ġkcal": 9077,
      "Ġmetres": 9078,
      "ictional": 9079,
      "Ġpuerto": 9080,
      "Ġlaboratory": 9081,
      "Ġfingers": 9082,
      "Ġfurniture": 9083,
      "rex": 9084,
      "Ġbare": 9085,
      "convert": 9086,
      "Ġdiure": 9087,
      "Ġbush": 9088,
      "Ġsubsid": 9089,
      "Ġodds": 9090,
      "wall": 9091,
      "Ġtin": 9092,
      "issan": 9093,
      "cope": 9094,
      "Ġrelie": 9095,
      "Ġurinate": 9096,
      "Ġsurvival": 9097,
      "Ġcampaign": 9098,
      "Ġreligious": 9099,
      "Ġdispos": 9100,
      "Ġelectroly": 9101,
      "*',": 9102,
      "sim": 9103,
      "Ġtrillion": 9104,
      "Ġsquir": 9105,
      "Ġaquarium": 9106,
      "multip": 9107,
      "Ġparadise": 9108,
      "uber": 9109,
      "asis": 9110,
      "ĠâĢ¢": 9111,
      "Ġemails": 9112,
      "Ġchallenge": 9113,
      "Ġfolders": 9114,
      "Ġhide": 9115,
      "ulations": 9116,
      "Ġacrylic": 9117,
      "Ġmagnetic": 9118,
      "razole": 9119,
      "Ġtied": 9120,
      "Ġgout": 9121,
      "user": 9122,
      "Ġloop": 9123,
      "raid": 9124,
      "Ġtitan": 9125,
      "Ġfetus": 9126,
      "82": 9127,
      "Ġstations": 9128,
      "plan": 9129,
      "Ġbooster": 9130,
      "itching": 9131,
      "Ġleftovers": 9132,
      "bad": 9133,
      "Ġwound": 9134,
      "ald": 9135,
      "Ġanth": 9136,
      "Ġanest": 9137,
      "Ġlag": 9138,
      "Ġgang": 9139,
      "Ġsuddenly": 9140,
      "Ġthorough": 9141,
      "uncture": 9142,
      "Ġkw": 9143,
      "Ġflashes": 9144,
      "Ġstrips": 9145,
      "Ġrabbits": 9146,
      "Ġadventure": 9147,
      "ima": 9148,
      "Ġinterface": 9149,
      "Ġexpressed": 9150,
      "itz": 9151,
      "Ġapparent": 9152,
      "azz": 9153,
      "missions": 9154,
      "Ġhits": 9155,
      "uset": 9156,
      "Ġchili": 9157,
      "Ġatms": 9158,
      "update": 9159,
      "Ġcompli": 9160,
      "Ġ59": 9161,
      "Ġcharacterized": 9162,
      "Ġmcg": 9163,
      "Ġsuccessfully": 9164,
      "Ġhindu": 9165,
      "natal": 9166,
      "Ġreddit": 9167,
      "Ġcock": 9168,
      "Ġgoat": 9169,
      "Ġmarked": 9170,
      "Ġprescribe": 9171,
      "protected": 9172,
      "isal": 9173,
      "2020": 9174,
      "Ġexpans": 9175,
      "Ġsquared": 9176,
      "Ġpackaging": 9177,
      "Ġflower": 9178,
      "Ġharvest": 9179,
      "Ġmeiosis": 9180,
      "Ġbru": 9181,
      "Ġfatal": 9182,
      "Ġtrained": 9183,
      "Ġqueens": 9184,
      "Ġabsorbed": 9185,
      "Ġjourney": 9186,
      "Ġpelvic": 9187,
      "mac": 9188,
      "Ġbeverage": 9189,
      "ographic": 9190,
      "Ġteachers": 9191,
      "Ġconfirmation": 9192,
      "Ġresidential": 9193,
      "Ġyields": 9194,
      "Ġcontracept": 9195,
      "Ġammonia": 9196,
      "ynthesis": 9197,
      "ez": 9198,
      "ulating": 9199,
      "Ġswiss": 9200,
      "Ġretain": 9201,
      "aho": 9202,
      "Ġaddresses": 9203,
      "micro": 9204,
      "Ġadjusted": 9205,
      "Ġdiscovered": 9206,
      "Ġbolt": 9207,
      "Ġcontaminated": 9208,
      "tem": 9209,
      "Ġlam": 9210,
      "Ġspawn": 9211,
      "ucch": 9212,
      "Ġblacklist": 9213,
      "Ġqualifying": 9214,
      "Ġtoddlers": 9215,
      "show": 9216,
      "Ġcontents": 9217,
      "gran": 9218,
      "Ġcharles": 9219,
      "Ġweekends": 9220,
      "Ġbitter": 9221,
[...]
